{
  "version": "1.0",
  "truncation": null,
  "padding": null,
  "added_tokens": [
    {
      "id": 0,
      "content": "[UNK]",
      "single_word": false,
      "lstrip": false,
      "rstrip": false,
      "normalized": false,
      "special": true
    },
    {
      "id": 1,
      "content": "[BOS]",
      "single_word": false,
      "lstrip": false,
      "rstrip": false,
      "normalized": false,
      "special": true
    },
    {
      "id": 2,
      "content": "[EOS]",
      "single_word": false,
      "lstrip": false,
      "rstrip": false,
      "normalized": false,
      "special": true
    }
  ],
  "normalizer": null,
  "pre_tokenizer": {
    "type": "Whitespace"
  },
  "post_processor": {
    "type": "TemplateProcessing",
    "single": [
      {
        "SpecialToken": {
          "id": "[BOS]",
          "type_id": 0
        }
      },
      {
        "Sequence": {
          "id": "A",
          "type_id": 0
        }
      },
      {
        "SpecialToken": {
          "id": "[EOS]",
          "type_id": 0
        }
      }
    ],
    "pair": [
      {
        "Sequence": {
          "id": "A",
          "type_id": 0
        }
      },
      {
        "Sequence": {
          "id": "B",
          "type_id": 1
        }
      }
    ],
    "special_tokens": {
      "[BOS]": {
        "id": "[BOS]",
        "ids": [
          1
        ],
        "tokens": [
          "[BOS]"
        ]
      },
      "[EOS]": {
        "id": "[EOS]",
        "ids": [
          2
        ],
        "tokens": [
          "[EOS]"
        ]
      }
    }
  },
  "decoder": null,
  "model": {
    "type": "BPE",
    "dropout": null,
    "unk_token": "[UNK]",
    "continuing_subword_prefix": null,
    "end_of_word_suffix": null,
    "fuse_unk": false,
    "vocab": {
      "[UNK]": 0,
      "[BOS]": 1,
      "[EOS]": 2,
      " ": 3,
      "!": 4,
      "\"": 5,
      "#": 6,
      "$": 7,
      "%": 8,
      "&": 9,
      "'": 10,
      "(": 11,
      ")": 12,
      "*": 13,
      "+": 14,
      ",": 15,
      "-": 16,
      ".": 17,
      "/": 18,
      "0": 19,
      "1": 20,
      "2": 21,
      "3": 22,
      "4": 23,
      "5": 24,
      "6": 25,
      "7": 26,
      "8": 27,
      "9": 28,
      ":": 29,
      ";": 30,
      "<": 31,
      "=": 32,
      ">": 33,
      "?": 34,
      "@": 35,
      "A": 36,
      "B": 37,
      "C": 38,
      "D": 39,
      "E": 40,
      "F": 41,
      "G": 42,
      "H": 43,
      "I": 44,
      "J": 45,
      "K": 46,
      "L": 47,
      "M": 48,
      "N": 49,
      "O": 50,
      "P": 51,
      "Q": 52,
      "R": 53,
      "S": 54,
      "T": 55,
      "U": 56,
      "V": 57,
      "W": 58,
      "X": 59,
      "Y": 60,
      "Z": 61,
      "[": 62,
      "\\": 63,
      "]": 64,
      "^": 65,
      "_": 66,
      "`": 67,
      "a": 68,
      "b": 69,
      "c": 70,
      "d": 71,
      "e": 72,
      "f": 73,
      "g": 74,
      "h": 75,
      "i": 76,
      "j": 77,
      "k": 78,
      "l": 79,
      "m": 80,
      "n": 81,
      "o": 82,
      "p": 83,
      "q": 84,
      "r": 85,
      "s": 86,
      "t": 87,
      "u": 88,
      "v": 89,
      "w": 90,
      "x": 91,
      "y": 92,
      "z": 93,
      "{": 94,
      "|": 95,
      "}": 96,
      "~": 97,
      "": 98,
      "°": 99,
      "É": 100,
      "Ö": 101,
      "Ü": 102,
      "à": 103,
      "á": 104,
      "â": 105,
      "ã": 106,
      "ä": 107,
      "æ": 108,
      "ç": 109,
      "è": 110,
      "é": 111,
      "ê": 112,
      "í": 113,
      "ï": 114,
      "ó": 115,
      "ô": 116,
      "õ": 117,
      "ö": 118,
      "ü": 119,
      "Ł": 120,
      "ő": 121,
      "ś": 122,
      "Π": 123,
      "Σ": 124,
      "Ω": 125,
      "α": 126,
      "β": 127,
      "γ": 128,
      "ε": 129,
      "λ": 130,
      "μ": 131,
      "ν": 132,
      "ρ": 133,
      "σ": 134,
      "τ": 135,
      "χ": 136,
      "ω": 137,
      "in": 138,
      "th": 139,
      "on": 140,
      "ti": 141,
      "re": 142,
      "an": 143,
      "er": 144,
      "al": 145,
      "or": 146,
      "en": 147,
      "the": 148,
      "tion": 149,
      "at": 150,
      "es": 151,
      "ing": 152,
      "is": 153,
      "ed": 154,
      "ar": 155,
      "ro": 156,
      "of": 157,
      "as": 158,
      "le": 159,
      "and": 160,
      "to": 161,
      "ic": 162,
      "ation": 163,
      "st": 164,
      "ac": 165,
      "pro": 166,
      "de": 167,
      "ent": 168,
      "for": 169,
      "se": 170,
      "it": 171,
      "co": 172,
      "ve": 173,
      "im": 174,
      "me": 175,
      "ly": 176,
      "ur": 177,
      "ap": 178,
      "res": 179,
      "ec": 180,
      "ul": 181,
      "si": 182,
      "ith": 183,
      "mp": 184,
      "tr": 185,
      "mo": 186,
      "et": 187,
      "ce": 188,
      "us": 189,
      "con": 190,
      "we": 191,
      "ch": 192,
      "ex": 193,
      "lo": 194,
      "un": 195,
      "po": 196,
      "ab": 197,
      "per": 198,
      "ag": 199,
      "ut": 200,
      "that": 201,
      "tic": 202,
      "wor": 203,
      "ver": 204,
      "ate": 205,
      "Th": 206,
      "di": 207,
      "ain": 208,
      "ter": 209,
      "su": 210,
      "are": 211,
      "with": 212,
      "ts": 213,
      "il": 214,
      "form": 215,
      "no": 216,
      "work": 217,
      "comp": 218,
      "wh": 219,
      "qu": 220,
      "ach": 221,
      "be": 222,
      "del": 223,
      "fic": 224,
      "ment": 225,
      "ol": 226,
      "ity": 227,
      "str": 228,
      "vi": 229,
      "We": 230,
      "dat": 231,
      "od": 232,
      "fe": 233,
      "ig": 234,
      "tive": 235,
      "model": 236,
      "iz": 237,
      "arn": 238,
      "ne": 239,
      "cl": 240,
      "sp": 241,
      "ho": 242,
      "The": 243,
      "ure": 244,
      "this": 245,
      "In": 246,
      "ad": 247,
      "ms": 248,
      "uc": 249,
      "thod": 250,
      "by": 251,
      "pl": 252,
      "learn": 253,
      "method": 254,
      "ra": 255,
      "age": 256,
      "ess": 257,
      "pres": 258,
      "ble": 259,
      "ations": 260,
      "gor": 261,
      "ren": 262,
      "der": 263,
      "el": 264,
      "ine": 265,
      "etwork": 266,
      "bas": 267,
      "propo": 268,
      "so": 269,
      "rom": 270,
      "gorith": 271,
      "ally": 272,
      "red": 273,
      "ir": 274,
      "par": 275,
      "ge": 276,
      "tim": 277,
      "from": 278,
      "ri": 279,
      "ma": 280,
      "ari": 281,
      "ich": 282,
      "can": 283,
      "appro": 284,
      "algorith": 285,
      "ect": 286,
      "man": 287,
      "data": 288,
      "dis": 289,
      "how": 290,
      "gen": 291,
      "ution": 292,
      "present": 293,
      "ance": 294,
      "which": 295,
      "able": 296,
      "learning": 297,
      "int": 298,
      "ob": 299,
      "based": 300,
      "ni": 301,
      "ting": 302,
      "our": 303,
      "mb": 304,
      "ev": 305,
      "igh": 306,
      "proble": 307,
      "ste": 308,
      "clas": 309,
      "network": 310,
      "ef": 311,
      "perform": 312,
      "sy": 313,
      "ated": 314,
      "ant": 315,
      "cal": 316,
      "sion": 317,
      "des": 318,
      "ten": 319,
      "bo": 320,
      "ding": 321,
      "show": 322,
      "feren": 323,
      "op": 324,
      "approach": 325,
      "ction": 326,
      "ural": 327,
      "ay": 328,
      "ical": 329,
      "resul": 330,
      "out": 331,
      "gener": 332,
      "aper": 333,
      "sed": 334,
      "paper": 335,
      "ization": 336,
      "vari": 337,
      "id": 338,
      "using": 339,
      "cur": 340,
      "ther": 341,
      "am": 342,
      "all": 343,
      "sis": 344,
      "ha": 345,
      "tri": 346,
      "ures": 347,
      "olution": 348,
      "arch": 349,
      "ulti": 350,
      "do": 351,
      "ous": 352,
      "dif": 353,
      "ers": 354,
      "algorithm": 355,
      "struc": 356,
      "ion": 357,
      "ative": 358,
      "low": 359,
      "vis": 360,
      "ep": 361,
      "train": 362,
      "tec": 363,
      "ual": 364,
      "imp": 365,
      "cess": 366,
      "feat": 367,
      "fi": 368,
      "ted": 369,
      "abil": 370,
      "ans": 371,
      "rel": 372,
      "problem": 373,
      "syste": 374,
      "ask": 375,
      "This": 376,
      "cor": 377,
      "ages": 378,
      "reg": 379,
      "results": 380,
      "ame": 381,
      "ds": 382,
      "ence": 383,
      "not": 384,
      "aly": 385,
      "classi": 386,
      "tions": 387,
      "proposed": 388,
      "has": 389,
      "vel": 390,
      "ll": 391,
      "image": 392,
      "methods": 393,
      "gu": 394,
      "gni": 395,
      "te": 396,
      "alu": 397,
      "mon": 398,
      "fication": 399,
      "comput": 400,
      "fici": 401,
      "enti": 402,
      "ust": 403,
      "bet": 404,
      "models": 405,
      "cont": 406,
      "ents": 407,
      "rec": 408,
      "ary": 409,
      "gr": 410,
      "task": 411,
      "use": 412,
      "log": 413,
      "amp": 414,
      "ace": 415,
      "over": 416,
      "multi": 417,
      "set": 418,
      "ext": 419,
      "ies": 420,
      "plic": 421,
      "ular": 422,
      "act": 423,
      "ere": 424,
      "wo": 425,
      "trib": 426,
      "formation": 427,
      "optim": 428,
      "such": 429,
      "sing": 430,
      "its": 431,
      "represent": 432,
      "ack": 433,
      "aset": 434,
      "ati": 435,
      "have": 436,
      "les": 437,
      "ke": 438,
      "ty": 439,
      "end": 440,
      "und": 441,
      "differen": 442,
      "performance": 443,
      "li": 444,
      "fin": 445,
      "ort": 446,
      "perim": 447,
      "used": 448,
      "ces": 449,
      "analy": 450,
      "dataset": 451,
      "unction": 452,
      "new": 453,
      "propose": 454,
      "est": 455,
      "up": 456,
      "now": 457,
      "pre": 458,
      "ven": 459,
      "ture": 460,
      "high": 461,
      "line": 462,
      "ors": 463,
      "time": 464,
      "main": 465,
      "sim": 466,
      "two": 467,
      "redic": 468,
      "obj": 469,
      "min": 470,
      "tical": 471,
      "function": 472,
      "com": 473,
      "one": 474,
      "led": 475,
      "fra": 476,
      "more": 477,
      "ug": 478,
      "ability": 479,
      "strate": 480,
      "information": 481,
      "aph": 482,
      "process": 483,
      "tain": 484,
      "spec": 485,
      "comple": 486,
      "state": 487,
      "ci": 488,
      "know": 489,
      "ties": 490,
      "inter": 491,
      "ser": 492,
      "istic": 493,
      "also": 494,
      "lar": 495,
      "ves": 496,
      "algorithms": 497,
      "neural": 498,
      "gra": 499,
      "duc": 500,
      "NN": 501,
      "provi": 502,
      "predic": 503,
      "ard": 504,
      "ore": 505,
      "art": 506,
      "different": 507,
      "these": 508,
      "networks": 509,
      "ating": 510,
      "images": 511,
      "sub": 512,
      "cre": 513,
      "xim": 514,
      "nu": 515,
      "ful": 516,
      "impro": 517,
      "tech": 518,
      "du": 519,
      "training": 520,
      "frame": 521,
      "dep": 522,
      "dy": 523,
      "om": 524,
      "accur": 525,
      "dition": 526,
      "ments": 527,
      "exp": 528,
      "ween": 529,
      "cri": 530,
      "ree": 531,
      "effici": 532,
      "between": 533,
      "mat": 534,
      "features": 535,
      "estim": 536,
      "mar": 537,
      "Our": 538,
      "reco": 539,
      "au": 540,
      "ates": 541,
      "Re": 542,
      "Con": 543,
      "under": 544,
      "put": 545,
      "hi": 546,
      "ong": 547,
      "experim": 548,
      "real": 549,
      "classification": 550,
      "pr": 551,
      "graph": 552,
      "applic": 553,
      "search": 554,
      "non": 555,
      "ory": 556,
      "other": 557,
      "system": 558,
      "both": 559,
      "been": 560,
      "demon": 561,
      "super": 562,
      "ective": 563,
      "trans": 564,
      "parame": 565,
      "niqu": 566,
      "class": 567,
      "deep": 568,
      "large": 569,
      "framework": 570,
      "imple": 571,
      "stu": 572,
      "ational": 573,
      "ss": 574,
      "ving": 575,
      "ugh": 576,
      "ase": 577,
      "ast": 578,
      "tribution": 579,
      "ign": 580,
      "Le": 581,
      "evalu": 582,
      "angu": 583,
      "techniqu": 584,
      "general": 585,
      "requ": 586,
      "Ex": 587,
      "ise": 588,
      "cy": 589,
      "eff": 590,
      "ized": 591,
      "their": 592,
      "um": 593,
      "samp": 594,
      "pe": 595,
      "numb": 596,
      "acy": 597,
      "problems": 598,
      "each": 599,
      "volution": 600,
      "gnition": 601,
      "irst": 602,
      "ill": 603,
      "analysis": 604,
      "achi": 605,
      ").": 606,
      "mentation": 607,
      "ved": 608,
      "lab": 609,
      "than": 610,
      "velo": 611,
      "sh": 612,
      "well": 613,
      "tric": 614,
      "scal": 615,
      "oc": 616,
      "ran": 617,
      "number": 618,
      "ial": 619,
      "ta": 620,
      "into": 621,
      "where": 622,
      "tern": 623,
      "sive": 624,
      "ling": 625,
      "novel": 626,
      "velop": 627,
      "ide": 628,
      "Co": 629,
      "ew": 630,
      "clu": 631,
      "Network": 632,
      "eng": 633,
      "develop": 634,
      "resp": 635,
      "uman": 636,
      "vers": 637,
      "gi": 638,
      "Learn": 639,
      "label": 640,
      "ality": 641,
      "ension": 642,
      "stand": 643,
      "structure": 644,
      "langu": 645,
      "parameter": 646,
      "achine": 647,
      "complex": 648,
      "To": 649,
      "ct": 650,
      "intro": 651,
      "efficient": 652,
      "cap": 653,
      "very": 654,
      "emp": 655,
      "mantic": 656,
      "linear": 657,
      "ite": 658,
      "Learning": 659,
      "imension": 660,
      "sequ": 661,
      "rent": 662,
      "king": 663,
      "action": 664,
      "),": 665,
      "order": 666,
      "space": 667,
      "ference": 668,
      "wever": 669,
      "ering": 670,
      "descri": 671,
      "text": 672,
      "exis": 673,
      "sol": 674,
      "ple": 675,
      "when": 676,
      "only": 677,
      "feature": 678,
      "auto": 679,
      "distribution": 680,
      "gn": 681,
      "gro": 682,
      "cep": 683,
      "demonstrate": 684,
      "fy": 685,
      "level": 686,
      "prob": 687,
      "dimension": 688,
      "detec": 689,
      "accuracy": 690,
      "chan": 691,
      "datasets": 692,
      "sen": 693,
      "An": 694,
      "Pro": 695,
      "Mo": 696,
      "matic": 697,
      "domain": 698,
      "comb": 699,
      "ects": 700,
      "first": 701,
      "tial": 702,
      "Ho": 703,
      "supervis": 704,
      "human": 705,
      "tasks": 706,
      "consi": 707,
      "depend": 708,
      "ph": 709,
      "Ne": 710,
      "av": 711,
      "most": 712,
      "construc": 713,
      "De": 714,
      "lic": 715,
      "recognition": 716,
      "he": 717,
      "systems": 718,
      "meas": 719,
      "volutional": 720,
      "but": 721,
      "atis": 722,
      "detection": 723,
      "iter": 724,
      "ision": 725,
      "ledge": 726,
      "Se": 727,
      "nam": 728,
      "seg": 729,
      "valu": 730,
      "improve": 731,
      "cr": 732,
      "fer": 733,
      "strain": 734,
      "clust": 735,
      "ish": 736,
      "exten": 737,
      "bi": 738,
      "many": 739,
      "tra": 740,
      "den": 741,
      "signi": 742,
      "chall": 743,
      "signific": 744,
      "some": 745,
      "app": 746,
      "local": 747,
      "ses": 748,
      "semantic": 749,
      "allow": 750,
      "view": 751,
      "approaches": 752,
      "simil": 753,
      "mark": 754,
      "sele": 755,
      "ize": 756,
      "CNN": 757,
      "significant": 758,
      "language": 759,
      "supervised": 760,
      "ail": 761,
      "ded": 762,
      "requi": 763,
      "pri": 764,
      "However": 765,
      "compare": 766,
      "identi": 767,
      "optimization": 768,
      "cer": 769,
      "ific": 770,
      "ze": 771,
      "combin": 772,
      "import": 773,
      "machine": 774,
      "duce": 775,
      "approxim": 776,
      "veral": 777,
      "knowledge": 778,
      "design": 779,
      "por": 780,
      "extr": 781,
      "input": 782,
      "val": 783,
      "ight": 784,
      "obtain": 785,
      "obser": 786,
      "ix": 787,
      "object": 788,
      "study": 789,
      "col": 790,
      "ency": 791,
      "ian": 792,
      "ben": 793,
      "representation": 794,
      "applications": 795,
      "go": 796,
      "ditional": 797,
      "metric": 798,
      "nat": 799,
      "provide": 800,
      "lay": 801,
      "aus": 802,
      "rough": 803,
      "experiments": 804,
      "itect": 805,
      "nel": 806,
      "solution": 807,
      "partic": 808,
      "ently": 809,
      "explo": 810,
      "constrain": 811,
      "temp": 812,
      "get": 813,
      "urther": 814,
      "similar": 815,
      "syn": 816,
      "existing": 817,
      "ile": 818,
      "sign": 819,
      "techniques": 820,
      "inclu": 821,
      "then": 822,
      "sc": 823,
      "gram": 824,
      "spe": 825,
      "any": 826,
      "andom": 827,
      "several": 828,
      "visual": 829,
      "if": 830,
      "achiev": 831,
      "wer": 832,
      "known": 833,
      "pa": 834,
      "dec": 835,
      "vide": 836,
      "20": 837,
      "way": 838,
      "architect": 839,
      "ness": 840,
      "spar": 841,
      "pat": 842,
      "scale": 843,
      "tribut": 844,
      "comm": 845,
      "minim": 846,
      "consider": 847,
      "tho": 848,
      "acter": 849,
      "video": 850,
      "aracter": 851,
      "Neural": 852,
      "ker": 853,
      "ayes": 854,
      "tiv": 855,
      "Deep": 856,
      "proper": 857,
      "Bayes": 858,
      "err": 859,
      "Im": 860,
      "ron": 861,
      "classifi": 862,
      "vious": 863,
      "fact": 864,
      "consis": 865,
      "enco": 866,
      "while": 867,
      "ases": 868,
      "simul": 869,
      "Comp": 870,
      "rect": 871,
      "better": 872,
      "pic": 873,
      "hand": 874,
      "med": 875,
      "research": 876,
      "multiple": 877,
      "mbed": 878,
      "respon": 879,
      "Al": 880,
      "ables": 881,
      "hy": 882,
      "loc": 883,
      "namic": 884,
      "pos": 885,
      "ression": 886,
      "mer": 887,
      "soci": 888,
      "ced": 889,
      "oper": 890,
      "rob": 891,
      "pli": 892,
      "current": 893,
      "given": 894,
      "Networks": 895,
      "adap": 896,
      "character": 897,
      "segmentation": 898,
      "incre": 899,
      "important": 900,
      "sm": 901,
      "sition": 902,
      "3D": 903,
      "En": 904,
      "vect": 905,
      "outperform": 906,
      "parameters": 907,
      "ub": 908,
      "It": 909,
      "word": 910,
      "challeng": 911,
      "dist": 912,
      "face": 913,
      "rix": 914,
      "scen": 915,
      "robust": 916,
      "inference": 917,
      "measure": 918,
      "ances": 919,
      "through": 920,
      "specific": 921,
      "mis": 922,
      "anti": 923,
      "particular": 924,
      "ental": 925,
      "trained": 926,
      "For": 927,
      "ld": 928,
      "uni": 929,
      "ator": 930,
      "izing": 931,
      "there": 932,
      "examp": 933,
      "compar": 934,
      "they": 935,
      "astic": 936,
      "logy": 937,
      "ject": 938,
      "gy": 939,
      "single": 940,
      "like": 941,
      "ross": 942,
      "cent": 943,
      "fac": 944,
      "Model": 945,
      "imin": 946,
      "random": 947,
      "lat": 948,
      "simple": 949,
      "ges": 950,
      "fo": 951,
      "possi": 952,
      "ese": 953,
      "oral": 954,
      "ener": 955,
      "quality": 956,
      "Bayesian": 957,
      "previous": 958,
      "Net": 959,
      "statis": 960,
      "ip": 961,
      "prediction": 962,
      "functions": 963,
      "effective": 964,
      "lim": 965,
      "theore": 966,
      "sur": 967,
      "back": 968,
      "sto": 969,
      "conver": 970,
      "introduce": 971,
      "adv": 972,
      "convolutional": 973,
      "add": 974,
      "optimal": 975,
      "cu": 976,
      "reduc": 977,
      "uld": 978,
      "compo": 979,
      "world": 980,
      "avail": 981,
      "port": 982,
      "tig": 983,
      "ased": 984,
      "mod": 985,
      "sets": 986,
      "nor": 987,
      "context": 988,
      "embed": 989,
      "tar": 990,
      "computational": 991,
      "regular": 992,
      "Multi": 993,
      "relations": 994,
      "processing": 995,
      "small": 996,
      "bal": 997,
      "may": 998,
      "bu": 999,
      "certain": 1000,
      "lish": 1001,
      "sch": 1002,
      "point": 1003,
      "dimensional": 1004,
      "automatic": 1005,
      "clustering": 1006,
      "produc": 1007,
      "decision": 1008,
      "dynamic": 1009,
      "estimation": 1010,
      "them": 1011,
      "compared": 1012,
      "matrix": 1013,
      "pattern": 1014,
      "als": 1015,
      "sour": 1016,
      "target": 1017,
      "three": 1018,
      "loss": 1019,
      "Cl": 1020,
      "Un": 1021,
      "tect": 1022,
      "step": 1023,
      "without": 1024,
      "vid": 1025,
      "plan": 1026,
      "available": 1027,
      "complexity": 1028,
      "standard": 1029,
      "dic": 1030,
      "ason": 1031,
      "Tr": 1032,
      "addres": 1033,
      "natural": 1034,
      "ST": 1035,
      "eve": 1036,
      "error": 1037,
      "af": 1038,
      "bound": 1039,
      "defin": 1040,
      "$\\": 1041,
      "br": 1042,
      "ech": 1043,
      "cus": 1044,
      "Me": 1045,
      "ection": 1046,
      "Experim": 1047,
      "bench": 1048,
      "plied": 1049,
      "ulation": 1050,
      "Ad": 1051,
      "via": 1052,
      "detect": 1053,
      "uring": 1054,
      "various": 1055,
      "ities": 1056,
      "fil": 1057,
      "case": 1058,
      "about": 1059,
      ".,": 1060,
      "representations": 1061,
      "cost": 1062,
      "eld": 1063,
      "assu": 1064,
      "limit": 1065,
      "sparse": 1066,
      "kernel": 1067,
      "dient": 1068,
      "oint": 1069,
      "ass": 1070,
      "ell": 1071,
      "ences": 1072,
      "chastic": 1073,
      "same": 1074,
      "pop": 1075,
      "need": 1076,
      "uch": 1077,
      "Rec": 1078,
      "Sp": 1079,
      "test": 1080,
      "suc": 1081,
      "vol": 1082,
      "ming": 1083,
      "probabil": 1084,
      "benchmark": 1085,
      "was": 1086,
      "inst": 1087,
      "ature": 1088,
      "technique": 1089,
      "--": 1090,
      "gence": 1091,
      "best": 1092,
      "contro": 1093,
      "applied": 1094,
      "ines": 1095,
      "On": 1096,
      "til": 1097,
      "terms": 1098,
      "size": 1099,
      "buil": 1100,
      "deri": 1101,
      "tes": 1102,
      "As": 1103,
      "norm": 1104,
      "sian": 1105,
      "setting": 1106,
      "objects": 1107,
      "sco": 1108,
      "match": 1109,
      "Lo": 1110,
      "intere": 1111,
      "interest": 1112,
      "sity": 1113,
      "lex": 1114,
      "equ": 1115,
      "architecture": 1116,
      "foc": 1117,
      "prac": 1118,
      "ints": 1119,
      "concep": 1120,
      "fully": 1121,
      "lying": 1122,
      "sup": 1123,
      "inal": 1124,
      "conn": 1125,
      "vex": 1126,
      "computation": 1127,
      "coun": 1128,
      "typ": 1129,
      "lead": 1130,
      "often": 1131,
      "clo": 1132,
      "viron": 1133,
      "ware": 1134,
      "recent": 1135,
      "tention": 1136,
      "logical": 1137,
      "introduc": 1138,
      "fied": 1139,
      "synthe": 1140,
      "pose": 1141,
      "spati": 1142,
      "track": 1143,
      "properties": 1144,
      "vision": 1145,
      "temporal": 1146,
      "fine": 1147,
      "ning": 1148,
      "havi": 1149,
      "CA": 1150,
      "lation": 1151,
      "ually": 1152,
      "wide": 1153,
      "output": 1154,
      "words": 1155,
      "allows": 1156,
      "struct": 1157,
      "St": 1158,
      "embedding": 1159,
      "common": 1160,
      "cho": 1161,
      "ential": 1162,
      "vestig": 1163,
      "accurate": 1164,
      "fu": 1165,
      "including": 1166,
      "reason": 1167,
      "related": 1168,
      "selection": 1169,
      "weigh": 1170,
      "region": 1171,
      "Ap": 1172,
      "maxim": 1173,
      "noise": 1174,
      "Using": 1175,
      "Gaus": 1176,
      "significantly": 1177,
      "deter": 1178,
      "evaluation": 1179,
      "achieve": 1180,
      "map": 1181,
      "possible": 1182,
      "actions": 1183,
      "mean": 1184,
      "investig": 1185,
      "success": 1186,
      "00": 1187,
      "ward": 1188,
      "lec": 1189,
      "uses": 1190,
      "quanti": 1191,
      "theory": 1192,
      "called": 1193,
      "annot": 1194,
      "ques": 1195,
      "sequence": 1196,
      "will": 1197,
      "key": 1198,
      "environ": 1199,
      "loy": 1200,
      "user": 1201,
      "fore": 1202,
      "behavi": 1203,
      "Dis": 1204,
      "challenging": 1205,
      "probability": 1206,
      "variables": 1207,
      "even": 1208,
      "convex": 1209,
      "mory": 1210,
      "prior": 1211,
      "201": 1212,
      "crimin": 1213,
      "power": 1214,
      "old": 1215,
      "gradient": 1216,
      "sem": 1217,
      "ecti": 1218,
      "ice": 1219,
      "inte": 1220,
      "further": 1221,
      "filter": 1222,
      "aging": 1223,
      "kes": 1224,
      "compon": 1225,
      "sche": 1226,
      "reconstruc": 1227,
      "direct": 1228,
      "asi": 1229,
      "versari": 1230,
      "expres": 1231,
      "result": 1232,
      "sor": 1233,
      "ear": 1234,
      "discus": 1235,
      "correspon": 1236,
      "off": 1237,
      "war": 1238,
      "layer": 1239,
      "provides": 1240,
      "points": 1241,
      "Gaussian": 1242,
      "studi": 1243,
      "ior": 1244,
      "ices": 1245,
      "Op": 1246,
      "outperforms": 1247,
      "due": 1248,
      "dependent": 1249,
      "ules": 1250,
      "Fin": 1251,
      "computer": 1252,
      "eous": 1253,
      "erarch": 1254,
      "modeling": 1255,
      "shown": 1256,
      "obtained": 1257,
      "corpor": 1258,
      "mes": 1259,
      "long": 1260,
      "Image": 1261,
      "conf": 1262,
      "find": 1263,
      "tool": 1264,
      "ak": 1265,
      "glo": 1266,
      "pair": 1267,
      "regression": 1268,
      "rate": 1269,
      "hip": 1270,
      "motion": 1271,
      "joint": 1272,
      "util": 1273,
      "inu": 1274,
      "application": 1275,
      "reat": 1276,
      "logic": 1277,
      "samples": 1278,
      "versarial": 1279,
      "son": 1280,
      "observ": 1281,
      "vector": 1282,
      "aim": 1283,
      "descrip": 1284,
      "rank": 1285,
      "bil": 1286,
      "learned": 1287,
      "evaluate": 1288,
      "ult": 1289,
      "ired": 1290,
      "Sy": 1291,
      "implement": 1292,
      "veness": 1293,
      "polic": 1294,
      "poten": 1295,
      "bit": 1296,
      "less": 1297,
      "objective": 1298,
      "sti": 1299,
      "stochastic": 1300,
      "ia": 1301,
      "Bo": 1302,
      "ategor": 1303,
      "Dat": 1304,
      "tation": 1305,
      "statistical": 1306,
      "These": 1307,
      "interpre": 1308,
      "GA": 1309,
      "require": 1310,
      "alle": 1311,
      "sent": 1312,
      "attention": 1313,
      "force": 1314,
      "empir": 1315,
      "Based": 1316,
      "Ch": 1317,
      "online": 1318,
      "group": 1319,
      "ected": 1320,
      "rele": 1321,
      "within": 1322,
      "similarity": 1323,
      "integr": 1324,
      "program": 1325,
      "active": 1326,
      "Mar": 1327,
      "diffic": 1328,
      "rection": 1329,
      "indi": 1330,
      "docu": 1331,
      "Gener": 1332,
      "understand": 1333,
      "play": 1334,
      "sions": 1335,
      "probabilistic": 1336,
      "ism": 1337,
      "Res": 1338,
      "ixel": 1339,
      "SV": 1340,
      "inary": 1341,
      "come": 1342,
      "identify": 1343,
      "unds": 1344,
      "discrimin": 1345,
      "quer": 1346,
      "ax": 1347,
      "ground": 1348,
      "verage": 1349,
      "More": 1350,
      "ause": 1351,
      "ot": 1352,
      "sample": 1353,
      "rid": 1354,
      "categor": 1355,
      "developed": 1356,
      "robo": 1357,
      "sel": 1358,
      "resolution": 1359,
      "classifier": 1360,
      "proced": 1361,
      "relation": 1362,
      "tivity": 1363,
      "constraints": 1364,
      "Ar": 1365,
      "ffici": 1366,
      "field": 1367,
      "sampling": 1368,
      "expl": 1369,
      "experimental": 1370,
      "continu": 1371,
      "convergence": 1372,
      "ord": 1373,
      "associ": 1374,
      "exper": 1375,
      "Finally": 1376,
      "were": 1377,
      "orig": 1378,
      "plicit": 1379,
      "address": 1380,
      "make": 1381,
      "amer": 1382,
      "inci": 1383,
      "tics": 1384,
      "latent": 1385,
      "demonstr": 1386,
      "ellig": 1387,
      "part": 1388,
      "ficial": 1389,
      "who": 1390,
      "ks": 1391,
      "disco": 1392,
      "exploit": 1393,
      "commun": 1394,
      "geo": 1395,
      "tributed": 1396,
      "theoretical": 1397,
      "sitive": 1398,
      "Further": 1399,
      "predict": 1400,
      "Det": 1401,
      "tral": 1402,
      "examples": 1403,
      "pixel": 1404,
      "ov": 1405,
      "memory": 1406,
      "ety": 1407,
      "value": 1408,
      "patterns": 1409,
      "global": 1410,
      "secon": 1411,
      "good": 1412,
      "spatial": 1413,
      "shap": 1414,
      "pub": 1415,
      "source": 1416,
      "types": 1417,
      "ging": 1418,
      "fol": 1419,
      "mechan": 1420,
      "classes": 1421,
      "ison": 1422,
      "contain": 1423,
      "mental": 1424,
      "oft": 1425,
      "post": 1426,
      "topic": 1427,
      "triev": 1428,
      "ner": 1429,
      "forcement": 1430,
      "Convolutional": 1431,
      "vidual": 1432,
      "verse": 1433,
      "dri": 1434,
      "sum": 1435,
      "ectiveness": 1436,
      "issu": 1437,
      "hood": 1438,
      "much": 1439,
      "speech": 1440,
      "transform": 1441,
      "mix": 1442,
      "formul": 1443,
      "range": 1444,
      "capture": 1445,
      "popular": 1446,
      "sho": 1447,
      "type": 1448,
      "datab": 1449,
      "effectiveness": 1450,
      "advant": 1451,
      "Au": 1452,
      "ini": 1453,
      "achieves": 1454,
      "tru": 1455,
      "inforcement": 1456,
      "addition": 1457,
      "allel": 1458,
      "individual": 1459,
      "ising": 1460,
      "agent": 1461,
      "useful": 1462,
      "hierarch": 1463,
      "complete": 1464,
      "try": 1465,
      "among": 1466,
      "distributions": 1467,
      "altern": 1468,
      "itu": 1469,
      "employ": 1470,
      "second": 1471,
      "control": 1472,
      "generated": 1473,
      "arti": 1474,
      "Mark": 1475,
      "illu": 1476,
      "ators": 1477,
      "solve": 1478,
      "strong": 1479,
      "relev": 1480,
      "fl": 1481,
      "across": 1482,
      "SP": 1483,
      "camer": 1484,
      "aces": 1485,
      "generate": 1486,
      "approximation": 1487,
      "hard": 1488,
      "fit": 1489,
      "ditions": 1490,
      "speed": 1491,
      "wn": 1492,
      "invol": 1493,
      "composition": 1494,
      "asing": 1495,
      "eli": 1496,
      "presented": 1497,
      "extrac": 1498,
      "determin": 1499,
      "ist": 1500,
      "wise": 1501,
      "sug": 1502,
      "Algorith": 1503,
      "variance": 1504,
      "prec": 1505,
      "presents": 1506,
      "eti": 1507,
      "elds": 1508,
      "solutions": 1509,
      "assump": 1510,
      "apping": 1511,
      "potential": 1512,
      "describ": 1513,
      "ero": 1514,
      "asy": 1515,
      "AR": 1516,
      "lection": 1517,
      "approximate": 1518,
      "ically": 1519,
      "tur": 1520,
      "translation": 1521,
      "does": 1522,
      "distance": 1523,
      "strategy": 1524,
      "ably": 1525,
      "describe": 1526,
      "conditions": 1527,
      "Analy": 1528,
      "Clas": 1529,
      "labeled": 1530,
      "pag": 1531,
      "automatically": 1532,
      "dered": 1533,
      "ante": 1534,
      "values": 1535,
      "beli": 1536,
      "atch": 1537,
      "those": 1538,
      "unsupervised": 1539,
      "found": 1540,
      "efficiency": 1541,
      "py": 1542,
      "bility": 1543,
      "arante": 1544,
      "ensive": 1545,
      "labels": 1546,
      "wards": 1547,
      "synthetic": 1548,
      "separ": 1549,
      "users": 1550,
      "valid": 1551,
      "appe": 1552,
      "suit": 1553,
      "elp": 1554,
      "let": 1555,
      "trieval": 1556,
      "domains": 1557,
      "tracking": 1558,
      "contr": 1559,
      "run": 1560,
      "Classi": 1561,
      "evolution": 1562,
      "Optim": 1563,
      "ali": 1564,
      "DP": 1565,
      "thus": 1566,
      "tack": 1567,
      "wr": 1568,
      "Reco": 1569,
      "factor": 1570,
      "relationship": 1571,
      "Po": 1572,
      "rules": 1573,
      "recently": 1574,
      "fficient": 1575,
      "eline": 1576,
      "directly": 1577,
      "incorpor": 1578,
      "enge": 1579,
      "dig": 1580,
      "making": 1581,
      "cases": 1582,
      "amo": 1583,
      "selec": 1584,
      "concept": 1585,
      "graphs": 1586,
      "scheme": 1587,
      "esp": 1588,
      "structures": 1589,
      "during": 1590,
      "lin": 1591,
      "help": 1592,
      "though": 1593,
      "layers": 1594,
      "comparison": 1595,
      "fas": 1596,
      "consist": 1597,
      "fast": 1598,
      "matching": 1599,
      "tan": 1600,
      "tree": 1601,
      "soft": 1602,
      "guarante": 1603,
      "follow": 1604,
      "Markov": 1605,
      "Data": 1606,
      "tail": 1607,
      "person": 1608,
      "princi": 1609,
      "being": 1610,
      "finite": 1611,
      "achieved": 1612,
      "original": 1613,
      "ared": 1614,
      "row": 1615,
      "atively": 1616,
      "normal": 1617,
      "solving": 1618,
      "Gr": 1619,
      "competi": 1620,
      "focus": 1621,
      "ger": 1622,
      "parallel": 1623,
      "alo": 1624,
      "continuous": 1625,
      "bounds": 1626,
      "istics": 1627,
      "apply": 1628,
      "policy": 1629,
      "direction": 1630,
      "pus": 1631,
      "limited": 1632,
      "tun": 1633,
      "Auto": 1634,
      "artic": 1635,
      "binary": 1636,
      "ecause": 1637,
      "uncertain": 1638,
      "example": 1639,
      "means": 1640,
      "reconstruction": 1641,
      "10": 1642,
      "defined": 1643,
      "Spec": 1644,
      "numer": 1645,
      "modal": 1646,
      "car": 1647,
      "liter": 1648,
      "term": 1649,
      "ys": 1650,
      "higher": 1651,
      "GP": 1652,
      "ince": 1653,
      "yi": 1654,
      "Moreover": 1655,
      "support": 1656,
      "adaptive": 1657,
      ")$": 1658,
      "ond": 1659,
      "depth": 1660,
      "structured": 1661,
      "ighb": 1662,
      "resulting": 1663,
      "pho": 1664,
      "highly": 1665,
      "izes": 1666,
      "efficiently": 1667,
      "parti": 1668,
      "bio": 1669,
      "series": 1670,
      "classifiers": 1671,
      "encoder": 1672,
      "traditional": 1673,
      "mic": 1674,
      "prove": 1675,
      "zz": 1676,
      "lower": 1677,
      "variant": 1678,
      "self": 1679,
      "fusion": 1680,
      "spectral": 1681,
      "Trans": 1682,
      "read": 1683,
      "shows": 1684,
      "frequ": 1685,
      "finding": 1686,
      "signal": 1687,
      "question": 1688,
      "adversarial": 1689,
      "MM": 1690,
      "amoun": 1691,
      "scene": 1692,
      "Fe": 1693,
      "ule": 1694,
      "ele": 1695,
      "Furthermore": 1696,
      "indic": 1697,
      "procedure": 1698,
      "ario": 1699,
      "estimate": 1700,
      "DA": 1701,
      "sci": 1702,
      "public": 1703,
      "tically": 1704,
      "attribut": 1705,
      "At": 1706,
      "transfer": 1707,
      "neg": 1708,
      "vo": 1709,
      "empirical": 1710,
      "reasoning": 1711,
      "Appro": 1712,
      "tional": 1713,
      "generation": 1714,
      "Analysis": 1715,
      "observed": 1716,
      "agents": 1717,
      "computing": 1718,
      "goal": 1719,
      "variety": 1720,
      "designed": 1721,
      "lack": 1722,
      "Ac": 1723,
      "MR": 1724,
      "GAN": 1725,
      "initial": 1726,
      "argu": 1727,
      "generalization": 1728,
      "practical": 1729,
      "Experimental": 1730,
      "idden": 1731,
      "ris": 1732,
      "asp": 1733,
      "generative": 1734,
      "behavior": 1735,
      "intellig": 1736,
      "propag": 1737,
      "appear": 1738,
      "RNN": 1739,
      "light": 1740,
      "formal": 1741,
      "crete": 1742,
      "LST": 1743,
      "scenario": 1744,
      "still": 1745,
      "moo": 1746,
      "extraction": 1747,
      "understanding": 1748,
      "fr": 1749,
      "By": 1750,
      "diag": 1751,
      "Reg": 1752,
      "requires": 1753,
      "social": 1754,
      "few": 1755,
      "free": 1756,
      "enh": 1757,
      "sequences": 1758,
      "difficult": 1759,
      "distributed": 1760,
      "uce": 1761,
      "vectors": 1762,
      "studies": 1763,
      "short": 1764,
      "align": 1765,
      "taneous": 1766,
      "Experiments": 1767,
      "ht": 1768,
      "flu": 1769,
      "increasing": 1770,
      "SA": 1771,
      "improved": 1772,
      "ler": 1773,
      "ablish": 1774,
      "hile": 1775,
      "CNNs": 1776,
      "environment": 1777,
      "MA": 1778,
      "stre": 1779,
      "fix": 1780,
      "While": 1781,
      "gies": 1782,
      "resour": 1783,
      "Machine": 1784,
      "poly": 1785,
      "investigate": 1786,
      "Recognition": 1787,
      "LSTM": 1788,
      "pur": 1789,
      "establish": 1790,
      "oring": 1791,
      "ither": 1792,
      "underlying": 1793,
      "open": 1794,
      "jor": 1795,
      "regions": 1796,
      "times": 1797,
      "relevant": 1798,
      "shape": 1799,
      "gest": 1800,
      "ially": 1801,
      "There": 1802,
      "tex": 1803,
      "tre": 1804,
      "uture": 1805,
      "regularization": 1806,
      "caus": 1807,
      "Qu": 1808,
      "First": 1809,
      "Syste": 1810,
      "retrieval": 1811,
      "improvement": 1812,
      "corresponding": 1813,
      "analyze": 1814,
      "ost": 1815,
      "explicit": 1816,
      "zzy": 1817,
      "With": 1818,
      "content": 1819,
      "implementation": 1820,
      "Detection": 1821,
      "independent": 1822,
      "Str": 1823,
      "experiment": 1824,
      "grams": 1825,
      "challenge": 1826,
      "diction": 1827,
      "LP": 1828,
      "MC": 1829,
      "brid": 1830,
      "flow": 1831,
      "architectures": 1832,
      "Models": 1833,
      "combination": 1834,
      "literature": 1835,
      "cording": 1836,
      "measures": 1837,
      "ings": 1838,
      "identification": 1839,
      "recurrent": 1840,
      "ang": 1841,
      "tran": 1842,
      "heur": 1843,
      "works": 1844,
      "because": 1845,
      "mooth": 1846,
      "great": 1847,
      "major": 1848,
      "reduction": 1849,
      "Wh": 1850,
      "dra": 1851,
      "sk": 1852,
      "fying": 1853,
      "cul": 1854,
      "ret": 1855,
      "neighb": 1856,
      "cle": 1857,
      "year": 1858,
      "Eng": 1859,
      "could": 1860,
      "stric": 1861,
      "amb": 1862,
      "Ob": 1863,
      "metry": 1864,
      "considered": 1865,
      "weights": 1866,
      "simultaneous": 1867,
      "ken": 1868,
      "change": 1869,
      "SVM": 1870,
      "writ": 1871,
      "detail": 1872,
      "hyper": 1873,
      "spaces": 1874,
      "belief": 1875,
      "$-": 1876,
      "nois": 1877,
      "camera": 1878,
      "oration": 1879,
      "components": 1880,
      "future": 1881,
      "database": 1882,
      "keli": 1883,
      "kelihood": 1884,
      "reduce": 1885,
      "marg": 1886,
      "agg": 1887,
      "path": 1888,
      "Classification": 1889,
      "again": 1890,
      "cross": 1891,
      "nec": 1892,
      "languages": 1893,
      "pothe": 1894,
      "corpus": 1895,
      "makes": 1896,
      "introduced": 1897,
      "conduc": 1898,
      "ways": 1899,
      "satis": 1900,
      "instances": 1901,
      "widely": 1902,
      "deco": 1903,
      "ition": 1904,
      "evaluated": 1905,
      "stead": 1906,
      "ants": 1907,
      "variable": 1908,
      "query": 1909,
      "ft": 1910,
      "Par": 1911,
      "correct": 1912,
      "ii": 1913,
      "comes": 1914,
      "semantics": 1915,
      "stim": 1916,
      "conditional": 1917,
      "conven": 1918,
      "feed": 1919,
      "CT": 1920,
      "ets": 1921,
      "condition": 1922,
      "constraint": 1923,
      "processes": 1924,
      "reli": 1925,
      "development": 1926,
      "smooth": 1927,
      "uron": 1928,
      "extensive": 1929,
      "sig": 1930,
      "tice": 1931,
      "give": 1932,
      "Graph": 1933,
      "cell": 1934,
      "discuss": 1935,
      "ics": 1936,
      "gene": 1937,
      "hypothe": 1938,
      "programming": 1939,
      "hidden": 1940,
      "improves": 1941,
      "what": 1942,
      "either": 1943,
      "zed": 1944,
      "exact": 1945,
      "assess": 1946,
      "produce": 1947,
      "ins": 1948,
      "hierarchical": 1949,
      "special": 1950,
      "respect": 1951,
      "Here": 1952,
      "crip": 1953,
      "criter": 1954,
      "ave": 1955,
      "ible": 1956,
      "{\\": 1957,
      "forward": 1958,
      "parametric": 1959,
      "reinforcement": 1960,
      "made": 1961,
      "uncertainty": 1962,
      "MT": 1963,
      "performed": 1964,
      "tal": 1965,
      "classical": 1966,
      "proj": 1967,
      "One": 1968,
      "against": 1969,
      "average": 1970,
      "mechanism": 1971,
      "document": 1972,
      "rule": 1973,
      "anced": 1974,
      "explore": 1975,
      "energy": 1976,
      "ient": 1977,
      "Sh": 1978,
      "bloc": 1979,
      "mated": 1980,
      "likelihood": 1981,
      "count": 1982,
      "cies": 1983,
      "ud": 1984,
      "semble": 1985,
      "gan": 1986,
      "urrent": 1987,
      "aries": 1988,
      "associated": 1989,
      "benef": 1990,
      "superior": 1991,
      "AI": 1992,
      "manif": 1993,
      "strategies": 1994,
      "ones": 1995,
      "necess": 1996,
      "score": 1997,
      "version": 1998,
      "provided": 1999,
      "competitive": 2000,
      "rely": 2001,
      "dynamics": 2002,
      "learns": 2003,
      "ime": 2004,
      "maps": 2005,
      "color": 2006,
      "instance": 2007,
      "required": 2008,
      "sentence": 2009,
      "bitr": 2010,
      "years": 2011,
      "unknown": 2012,
      "contrast": 2013,
      "top": 2014,
      "challenges": 2015,
      "extract": 2016,
      "ade": 2017,
      "occur": 2018,
      "promis": 2019,
      "call": 2020,
      "interpret": 2021,
      "brain": 2022,
      "easi": 2023,
      "band": 2024,
      "faster": 2025,
      "ately": 2026,
      "additional": 2027,
      "fam": 2028,
      "neuron": 2029,
      "component": 2030,
      "noisy": 2031,
      "preser": 2032,
      "Process": 2033,
      "derive": 2034,
      "English": 2035,
      "amount": 2036,
      "should": 2037,
      "nodes": 2038,
      "contribution": 2039,
      "OC": 2040,
      "ily": 2041,
      "communic": 2042,
      "acqu": 2043,
      "Comput": 2044,
      "ories": 2045,
      "road": 2046,
      "parts": 2047,
      "embeddings": 2048,
      "observations": 2049,
      "box": 2050,
      "mapping": 2051,
      "Rob": 2052,
      "remain": 2053,
      "artificial": 2054,
      "recogn": 2055,
      "rich": 2056,
      "nom": 2057,
      "videos": 2058,
      "planning": 2059,
      "ology": 2060,
      "So": 2061,
      "alized": 2062,
      "collec": 2063,
      "RL": 2064,
      "gain": 2065,
      "spired": 2066,
      "propagation": 2067,
      "location": 2068,
      "weak": 2069,
      "full": 2070,
      "Specific": 2071,
      "flex": 2072,
      "remo": 2073,
      "Predic": 2074,
      "onto": 2075,
      "changes": 2076,
      "review": 2077,
      "pically": 2078,
      "2D": 2079,
      "arbitr": 2080,
      "robustness": 2081,
      "leads": 2082,
      "Sim": 2083,
      "meaning": 2084,
      "enables": 2085,
      "code": 2086,
      "ital": 2087,
      "extracted": 2088,
      "percep": 2089,
      "Per": 2090,
      "fa": 2091,
      "discriminative": 2092,
      "espec": 2093,
      "phys": 2094,
      "cing": 2095,
      "consistent": 2096,
      "entiment": 2097,
      "stage": 2098,
      "ring": 2099,
      "maximum": 2100,
      "DNN": 2101,
      "veri": 2102,
      "especially": 2103,
      "phas": 2104,
      "ranking": 2105,
      "respective": 2106,
      "simultaneously": 2107,
      "imaging": 2108,
      "Langu": 2109,
      "achines": 2110,
      "baseline": 2111,
      "calcul": 2112,
      "descript": 2113,
      "promising": 2114,
      "deal": 2115,
      "seen": 2116,
      "fixed": 2117,
      "take": 2118,
      "concepts": 2119,
      "negative": 2120,
      "Ma": 2121,
      "que": 2122,
      "Vis": 2123,
      "ival": 2124,
      "SS": 2125,
      "mining": 2126,
      "semi": 2127,
      "robot": 2128,
      "variational": 2129,
      "Semantic": 2130,
      "ML": 2131,
      "restric": 2132,
      "predictions": 2133,
      "extend": 2134,
      "Non": 2135,
      "discrete": 2136,
      "centr": 2137,
      "effectively": 2138,
      "diagno": 2139,
      "recomm": 2140,
      "evid": 2141,
      "four": 2142,
      "sali": 2143,
      "formulation": 2144,
      "rices": 2145,
      "computationally": 2146,
      "isation": 2147,
      "influ": 2148,
      "ono": 2149,
      "poster": 2150,
      "name": 2151,
      "pen": 2152,
      "however": 2153,
      "tency": 2154,
      "dictionary": 2155,
      "Spar": 2156,
      "Algorithm": 2157,
      "improvements": 2158,
      "engine": 2159,
      "alternative": 2160,
      "Vari": 2161,
      "ropy": 2162,
      "article": 2163,
      "conventional": 2164,
      "land": 2165,
      "grow": 2166,
      "sens": 2167,
      "sparsity": 2168,
      "lingu": 2169,
      "math": 2170,
      "signals": 2171,
      "Method": 2172,
      "tools": 2173,
      "risk": 2174,
      "200": 2175,
      "encies": 2176,
      "relative": 2177,
      "suitable": 2178,
      "assign": 2179,
      "No": 2180,
      "Seg": 2181,
      "mut": 2182,
      "metrics": 2183,
      "expected": 2184,
      "ections": 2185,
      "build": 2186,
      "deg": 2187,
      "role": 2188,
      "performs": 2189,
      "factors": 2190,
      "PS": 2191,
      "here": 2192,
      "typically": 2193,
      "ength": 2194,
      "Specifically": 2195,
      "Min": 2196,
      "weight": 2197,
      "fund": 2198,
      "Optimization": 2199,
      "tract": 2200,
      "usually": 2201,
      "positive": 2202,
      "basis": 2203,
      "pairs": 2204,
      "Sec": 2205,
      "mal": 2206,
      "event": 2207,
      "nonlinear": 2208,
      "web": 2209,
      "lit": 2210,
      "advantage": 2211,
      "near": 2212,
      "induc": 2213,
      "avo": 2214,
      "issue": 2215,
      "side": 2216,
      "weighted": 2217,
      "ib": 2218,
      "appropri": 2219,
      "implemented": 2220,
      "states": 2221,
      "resh": 2222,
      "logies": 2223,
      "pati": 2224,
      "organ": 2225,
      "answer": 2226,
      "Represent": 2227,
      "density": 2228,
      "equival": 2229,
      "area": 2230,
      "constrained": 2231,
      "Then": 2232,
      "segment": 2233,
      "tested": 2234,
      "proposes": 2235,
      "gether": 2236,
      "least": 2237,
      "see": 2238,
      "Struc": 2239,
      "according": 2240,
      "clusters": 2241,
      "game": 2242,
      "matrices": 2243,
      "estimates": 2244,
      "whe": 2245,
      "situ": 2246,
      "Inter": 2247,
      "kin": 2248,
      "numerical": 2249,
      "controll": 2250,
      "Approach": 2251,
      "CI": 2252,
      "ough": 2253,
      "SR": 2254,
      "studied": 2255,
      "just": 2256,
      "effect": 2257,
      "settings": 2258,
      "Visual": 2259,
      "fuzzy": 2260,
      "speci": 2261,
      "patch": 2262,
      "derived": 2263,
      "Di": 2264,
      "sty": 2265,
      "facial": 2266,
      "qual": 2267,
      "ople": 2268,
      "idea": 2269,
      "correlation": 2270,
      "along": 2271,
      "infer": 2272,
      "close": 2273,
      "MI": 2274,
      "Language": 2275,
      "fail": 2276,
      "Estim": 2277,
      "evidence": 2278,
      "importance": 2279,
      "independ": 2280,
      "prog": 2281,
      "graphical": 2282,
      "demonstrated": 2283,
      "sugges": 2284,
      "nomial": 2285,
      "interactions": 2286,
      "funda": 2287,
      "become": 2288,
      "aug": 2289,
      "Log": 2290,
      "Des": 2291,
      "precision": 2292,
      "abstr": 2293,
      "compute": 2294,
      "posterior": 2295,
      "collection": 2296,
      "na": 2297,
      "ff": 2298,
      "dio": 2299,
      "squ": 2300,
      "interaction": 2301,
      "cand": 2302,
      "since": 2303,
      "scenarios": 2304,
      "aggreg": 2305,
      "frames": 2306,
      "date": 2307,
      "ok": 2308,
      "descent": 2309,
      "forms": 2310,
      "updat": 2311,
      "consistency": 2312,
      "assumptions": 2313,
      "Su": 2314,
      "exam": 2315,
      "whether": 2316,
      "yet": 2317,
      "generating": 2318,
      "ense": 2319,
      "mous": 2320,
      "building": 2321,
      "gam": 2322,
      "}$": 2323,
      "matical": 2324,
      "testing": 2325,
      "ey": 2326,
      "medical": 2327,
      "wit": 2328,
      "prim": 2329,
      "EM": 2330,
      "construct": 2331,
      "software": 2332,
      "turn": 2333,
      "every": 2334,
      "RG": 2335,
      "deno": 2336,
      "attributes": 2337,
      "SI": 2338,
      "zing": 2339,
      "together": 2340,
      "place": 2341,
      "tures": 2342,
      "igu": 2343,
      "background": 2344,
      "aims": 2345,
      "Second": 2346,
      "predictive": 2347,
      "aff": 2348,
      "Text": 2349,
      "powerful": 2350,
      "define": 2351,
      "automated": 2352,
      "previously": 2353,
      "arbitrary": 2354,
      "expon": 2355,
      "questions": 2356,
      "whose": 2357,
      "causal": 2358,
      "documents": 2359,
      "mor": 2360,
      "consists": 2361,
      "phase": 2362,
      "emer": 2363,
      "nature": 2364,
      "Gra": 2365,
      "evolutionary": 2366,
      "length": 2367,
      "ensemble": 2368,
      "account": 2369,
      "easily": 2370,
      "programs": 2371,
      "herent": 2372,
      "comparable": 2373,
      "insig": 2374,
      "environments": 2375,
      "regret": 2376,
      "jointly": 2377,
      "explain": 2378,
      "combined": 2379,
      "reh": 2380,
      "critical": 2381,
      "stream": 2382,
      "sentences": 2383,
      "decomposition": 2384,
      "minimization": 2385,
      "techno": 2386,
      "cei": 2387,
      "steps": 2388,
      "practice": 2389,
      "basic": 2390,
      "rather": 2391,
      "mathe": 2392,
      "levels": 2393,
      "driven": 2394,
      "cluster": 2395,
      "Exten": 2396,
      "advantages": 2397,
      "sequential": 2398,
      "relationships": 2399,
      "characteristics": 2400,
      "celer": 2401,
      "manner": 2402,
      "Do": 2403,
      "adop": 2404,
      "mag": 2405,
      "polynomial": 2406,
      "ress": 2407,
      "events": 2408,
      "issues": 2409,
      "vices": 2410,
      "people": 2411,
      "towards": 2412,
      "geometric": 2413,
      "would": 2414,
      "respectively": 2415,
      "depen": 2416,
      "core": 2417,
      "purpose": 2418,
      "increase": 2419,
      "faces": 2420,
      "simulation": 2421,
      "ordin": 2422,
      "Mon": 2423,
      "rates": 2424,
      "phr": 2425,
      "hic": 2426,
      "reve": 2427,
      "structural": 2428,
      "io": 2429,
      "written": 2430,
      "19": 2431,
      "benchmarks": 2432,
      "inde": 2433,
      "vering": 2434,
      "adaptation": 2435,
      "linguistic": 2436,
      "mixture": 2437,
      "sense": 2438,
      "subset": 2439,
      "intelligence": 2440,
      "position": 2441,
      "fields": 2442,
      "Cor": 2443,
      "isms": 2444,
      "ga": 2445,
      "texture": 2446,
      "product": 2447,
      "Clust": 2448,
      "sible": 2449,
      "unding": 2450,
      "quantit": 2451,
      "ref": 2452,
      "community": 2453,
      "attack": 2454,
      "fundamental": 2455,
      "spective": 2456,
      "motiv": 2457,
      "AD": 2458,
      "must": 2459,
      "appropriate": 2460,
      "ER": 2461,
      "heuristic": 2462,
      "guarantees": 2463,
      "convolution": 2464,
      "surve": 2465,
      "extension": 2466,
      "sufficient": 2467,
      "combining": 2468,
      "enhance": 2469,
      "base": 2470,
      "handle": 2471,
      "When": 2472,
      "providing": 2473,
      "subst": 2474,
      "illustrate": 2475,
      "oling": 2476,
      "edge": 2477,
      "answ": 2478,
      "coding": 2479,
      "Adap": 2480,
      "win": 2481,
      "methodology": 2482,
      "orient": 2483,
      "AC": 2484,
      "assumption": 2485,
      "cannot": 2486,
      "Sparse": 2487,
      "Dec": 2488,
      "sentiment": 2489,
      "property": 2490,
      "instead": 2491,
      "ferences": 2492,
      "takes": 2493,
      "errors": 2494,
      "connected": 2495,
      "coll": 2496,
      "inform": 2497,
      "tle": 2498,
      "encoding": 2499,
      "categories": 2500,
      "vary": 2501,
      "thresh": 2502,
      "necessary": 2503,
      "effor": 2504,
      "propos": 2505,
      "SL": 2506,
      "repor": 2507,
      "represented": 2508,
      "far": 2509,
      "tron": 2510,
      "localization": 2511,
      "Although": 2512,
      "rt": 2513,
      "tag": 2514,
      "statistics": 2515,
      "mine": 2516,
      "suggest": 2517,
      "Dy": 2518,
      "photo": 2519,
      "family": 2520,
      "Segmentation": 2521,
      "vice": 2522,
      "manifold": 2523,
      "CR": 2524,
      "NI": 2525,
      "inear": 2526,
      "Recurrent": 2527,
      "Cont": 2528,
      "illion": 2529,
      "iterative": 2530,
      "Random": 2531,
      "activ": 2532,
      "versity": 2533,
      "true": 2534,
      "appearance": 2535,
      "communication": 2536,
      "ene": 2537,
      "boost": 2538,
      "effects": 2539,
      "after": 2540,
      "PCA": 2541,
      "exhi": 2542,
      "down": 2543,
      "applying": 2544,
      "treat": 2545,
      "ank": 2546,
      "attemp": 2547,
      "aspects": 2548,
      "proto": 2549,
      "trees": 2550,
      "capable": 2551,
      "sensor": 2552,
      "report": 2553,
      "computed": 2554,
      "head": 2555,
      "choice": 2556,
      "filtering": 2557,
      "namely": 2558,
      "modif": 2559,
      "ambigu": 2560,
      "la": 2561,
      "include": 2562,
      "idat": 2563,
      "Feature": 2564,
      "rest": 2565,
      "clin": 2566,
      "successfully": 2567,
      "presence": 2568,
      "extre": 2569,
      "Local": 2570,
      "const": 2571,
      "bl": 2572,
      "feasi": 2573,
      "ults": 2574,
      "missing": 2575,
      "ffic": 2576,
      "MS": 2577,
      "sources": 2578,
      "another": 2579,
      "Adversarial": 2580,
      "frequency": 2581,
      "Such": 2582,
      "neu": 2583,
      "vent": 2584,
      "abor": 2585,
      "gnitive": 2586,
      "inputs": 2587,
      "ute": 2588,
      "ound": 2589,
      "performing": 2590,
      "extended": 2591,
      "---": 2592,
      "Dif": 2593,
      "mbol": 2594,
      "Prob": 2595,
      "variate": 2596,
      "tac": 2597,
      "Super": 2598,
      "MDP": 2599,
      "activity": 2600,
      "dense": 2601,
      "Most": 2602,
      "recommend": 2603,
      "antum": 2604,
      "CP": 2605,
      "inspired": 2606,
      "sitions": 2607,
      "simulated": 2608,
      "hybrid": 2609,
      "showing": 2610,
      "grad": 2611,
      "ID": 2612,
      "bre": 2613,
      "tensor": 2614,
      "entropy": 2615,
      "measurements": 2616,
      "population": 2617,
      "Information": 2618,
      "medi": 2619,
      "block": 2620,
      "avoid": 2621,
      "Human": 2622,
      "hing": 2623,
      "truth": 2624,
      "fitting": 2625,
      "neighbor": 2626,
      "New": 2627,
      "ious": 2628,
      "operations": 2629,
      "margin": 2630,
      "areas": 2631,
      "annotated": 2632,
      "Sub": 2633,
      "partial": 2634,
      "estimating": 2635,
      "care": 2636,
      "describes": 2637,
      "Object": 2638,
      "overall": 2639,
      "Sto": 2640,
      "resources": 2641,
      "Mat": 2642,
      "adig": 2643,
      "node": 2644,
      "Int": 2645,
      "sym": 2646,
      "interesting": 2647,
      "priv": 2648,
      "exploration": 2649,
      "Web": 2650,
      "idual": 2651,
      "final": 2652,
      "selected": 2653,
      "ue": 2654,
      "consu": 2655,
      "project": 2656,
      "ody": 2657,
      "degree": 2658,
      "tially": 2659,
      "compression": 2660,
      "maintain": 2661,
      "probabilities": 2662,
      "kernels": 2663,
      "ideo": 2664,
      "upon": 2665,
      "estimated": 2666,
      "texts": 2667,
      "Or": 2668,
      "mpto": 2669,
      "sensing": 2670,
      "response": 2671,
      "larger": 2672,
      "summar": 2673,
      "variations": 2674,
      "ged": 2675,
      "enable": 2676,
      "utono": 2677,
      "rected": 2678,
      "utonomous": 2679,
      "geneous": 2680,
      "qualit": 2681,
      "notion": 2682,
      "Word": 2683,
      "ped": 2684,
      "topo": 2685,
      "subspace": 2686,
      "dimensionality": 2687,
      "BP": 2688,
      "stit": 2689,
      "pixels": 2690,
      "alignment": 2691,
      "Many": 2692,
      "stable": 2693,
      "improving": 2694,
      "scores": 2695,
      "zero": 2696,
      "ick": 2697,
      "acceler": 2698,
      "rence": 2699,
      "functional": 2700,
      "transformation": 2701,
      "rowd": 2702,
      "cial": 2703,
      "Video": 2704,
      "traject": 2705,
      "Robust": 2706,
      "units": 2707,
      "abilities": 2708,
      "expensive": 2709,
      "Proble": 2710,
      "groups": 2711,
      "Pl": 2712,
      "Scal": 2713,
      "proof": 2714,
      "impact": 2715,
      "combines": 2716,
      "etc": 2717,
      "particularly": 2718,
      "Car": 2719,
      "ares": 2720,
      "alth": 2721,
      "generalized": 2722,
      "uniform": 2723,
      "reed": 2724,
      "realistic": 2725,
      "RGB": 2726,
      "batch": 2727,
      "dialo": 2728,
      "sensitive": 2729,
      "empirically": 2730,
      "zes": 2731,
      "turb": 2732,
      "Clustering": 2733,
      "gue": 2734,
      "predicting": 2735,
      "invariant": 2736,
      "total": 2737,
      "channel": 2738,
      "queries": 2739,
      "ressive": 2740,
      "paradig": 2741,
      "Recently": 2742,
      "Recent": 2743,
      "ild": 2744,
      "diverse": 2745,
      "variation": 2746,
      "variants": 2747,
      "fies": 2748,
      "allowing": 2749,
      "partition": 2750,
      "SG": 2751,
      "generic": 2752,
      "occlu": 2753,
      "config": 2754,
      "expert": 2755,
      "Estimation": 2756,
      "ber": 2757,
      "construction": 2758,
      "annotation": 2759,
      "System": 2760,
      "posed": 2761,
      "determine": 2762,
      "dise": 2763,
      "Face": 2764,
      "Time": 2765,
      "compreh": 2766,
      "Under": 2767,
      "yields": 2768,
      "tom": 2769,
      "plat": 2770,
      "Structure": 2771,
      "Pr": 2772,
      "upl": 2773,
      "meta": 2774,
      "transl": 2775,
      "Li": 2776,
      "izations": 2777,
      "extreme": 2778,
      "shar": 2779,
      "expression": 2780,
      "phen": 2781,
      "evol": 2782,
      "reduced": 2783,
      "lect": 2784,
      "vehic": 2785,
      "operator": 2786,
      "observation": 2787,
      "regis": 2788,
      "cir": 2789,
      "collected": 2790,
      "erial": 2791,
      "Ker": 2792,
      "reach": 2793,
      "Applic": 2794,
      "Generative": 2795,
      "Therefore": 2796,
      "poses": 2797,
      "combine": 2798,
      "facil": 2799,
      "moder": 2800,
      "influence": 2801,
      "subj": 2802,
      "100": 2803,
      "Hy": 2804,
      "idence": 2805,
      "annotations": 2806,
      "pi": 2807,
      "coordin": 2808,
      "scales": 2809,
      "achieving": 2810,
      "described": 2811,
      "machines": 2812,
      "aining": 2813,
      "distin": 2814,
      "commonly": 2815,
      "MF": 2816,
      "zation": 2817,
      "veraging": 2818,
      "arities": 2819,
      "gives": 2820,
      "Search": 2821,
      "filters": 2822,
      "cra": 2823,
      "sa": 2824,
      "solved": 2825,
      "Stochastic": 2826,
      "men": 2827,
      "tration": 2828,
      "compact": 2829,
      "trade": 2830,
      "Rel": 2831,
      "entially": 2832,
      "MRI": 2833,
      "hypothesis": 2834,
      "max": 2835,
      "neurons": 2836,
      "games": 2837,
      "Dynamic": 2838,
      "CN": 2839,
      "cept": 2840,
      "successful": 2841,
      "Program": 2842,
      "interpretation": 2843,
      "projection": 2844,
      "scan": 2845,
      "sure": 2846,
      "relax": 2847,
      "ditionally": 2848,
      "atic": 2849,
      "introduces": 2850,
      "description": 2851,
      "genetic": 2852,
      "inten": 2853,
      "whole": 2854,
      "conducted": 2855,
      "feedback": 2856,
      "reference": 2857,
      "urally": 2858,
      "surface": 2859,
      "sil": 2860,
      "cruc": 2861,
      "tuning": 2862,
      "clear": 2863,
      "Kernel": 2864,
      "arge": 2865,
      "etero": 2866,
      "mi": 2867,
      "past": 2868,
      "itude": 2869,
      "easy": 2870,
      "perspective": 2871,
      "utility": 2872,
      "$.": 2873,
      "Fu": 2874,
      "intr": 2875,
      "conclu": 2876,
      "Algorithms": 2877,
      "micro": 2878,
      "pip": 2879,
      "scalable": 2880,
      "scenes": 2881,
      "therefore": 2882,
      "explicitly": 2883,
      "day": 2884,
      "iring": 2885,
      "draw": 2886,
      "shared": 2887,
      "broad": 2888,
      "built": 2889,
      "ands": 2890,
      "ector": 2891,
      "Automatic": 2892,
      "Inference": 2893,
      "following": 2894,
      "outli": 2895,
      "views": 2896,
      "link": 2897,
      "tractable": 2898,
      "Col": 2899,
      "Spe": 2900,
      "em": 2901,
      "atures": 2902,
      "subject": 2903,
      "Reinforcement": 2904,
      "DL": 2905,
      "Efficient": 2906,
      "ery": 2907,
      "constant": 2908,
      "(\\": 2909,
      "gap": 2910,
      "ied": 2911,
      "elines": 2912,
      "rati": 2913,
      "estimator": 2914,
      "arest": 2915,
      "indicate": 2916,
      "done": 2917,
      "configur": 2918,
      "symbol": 2919,
      "versal": 2920,
      "pal": 2921,
      "idate": 2922,
      "net": 2923,
      "elements": 2924,
      "Gi": 2925,
      "hist": 2926,
      "Results": 2927,
      "Thus": 2928,
      "bias": 2929,
      "suppor": 2930,
      "mathematical": 2931,
      "his": 2932,
      "QA": 2933,
      "dro": 2934,
      "exec": 2935,
      "update": 2936,
      "ided": 2937,
      "representing": 2938,
      "minimum": 2939,
      "leading": 2940,
      "access": 2941,
      "diver": 2942,
      "ained": 2943,
      "labeling": 2944,
      "researchers": 2945,
      "modular": 2946,
      "identifying": 2947,
      "style": 2948,
      "denoising": 2949,
      "named": 2950,
      "bounded": 2951,
      "Tra": 2952,
      "outputs": 2953,
      "entities": 2954,
      "policies": 2955,
      "Linear": 2956,
      "aware": 2957,
      "textual": 2958,
      "physical": 2959,
      "NP": 2960,
      "rig": 2961,
      "principl": 2962,
      "decoder": 2963,
      "saliency": 2964,
      "Constrain": 2965,
      "graphy": 2966,
      "generally": 2967,
      "crucial": 2968,
      "agement": 2969,
      "intu": 2970,
      "operators": 2971,
      "publicly": 2972,
      "produces": 2973,
      "flexible": 2974,
      "ams": 2975,
      "body": 2976,
      "ens": 2977,
      "humans": 2978,
      "Arti": 2979,
      "descriptors": 2980,
      "cognitive": 2981,
      "accurately": 2982,
      "clinical": 2983,
      "Given": 2984,
      "Know": 2985,
      "reward": 2986,
      "UC": 2987,
      "science": 2988,
      "igen": 2989,
      "magn": 2990,
      "Fast": 2991,
      "classify": 2992,
      "Chin": 2993,
      "upper": 2994,
      "Images": 2995,
      "mobi": 2996,
      "mobile": 2997,
      "uish": 2998,
      "recovery": 2999,
      "High": 3000,
      "dependencies": 3001,
      "cas": 3002,
      "tinguish": 3003,
      "quantitative": 3004,
      "AM": 3005,
      "connections": 3006,
      "$,": 3007,
      "iting": 3008,
      "move": 3009,
      "olds": 3010,
      "contextual": 3011,
      "Fra": 3012,
      "vised": 3013,
      "employed": 3014,
      "edia": 3015,
      "minimal": 3016,
      "parsing": 3017,
      "validation": 3018,
      "DE": 3019,
      "ancy": 3020,
      "unique": 3021,
      "topics": 3022,
      "facilit": 3023,
      "dual": 3024,
      "quantum": 3025,
      "ps": 3026,
      "Extensive": 3027,
      "Pre": 3028,
      "reveal": 3029,
      "essential": 3030,
      "auth": 3031,
      "comparing": 3032,
      "pas": 3033,
      "edges": 3034,
      "arily": 3035,
      "select": 3036,
      "insic": 3037,
      "Imp": 3038,
      "ised": 3039,
      "discovery": 3040,
      "reliable": 3041,
      "concer": 3042,
      "perturb": 3043,
      "resource": 3044,
      "Systems": 3045,
      "varying": 3046,
      "recei": 3047,
      "urse": 3048,
      "media": 3049,
      "chron": 3050,
      "choo": 3051,
      "spi": 3052,
      "criterion": 3053,
      "valued": 3054,
      "station": 3055,
      "Exp": 3056,
      "validate": 3057,
      "benefits": 3058,
      "distinguish": 3059,
      "ceed": 3060,
      "Since": 3061,
      "shi": 3062,
      "difference": 3063,
      "asympto": 3064,
      "Go": 3065,
      "big": 3066,
      "mentary": 3067,
      "syntac": 3068,
      "Online": 3069,
      "geometry": 3070,
      "index": 3071,
      "wave": 3072,
      "Embed": 3073,
      "autonomous": 3074,
      "ater": 3075,
      "includes": 3076,
      "ratio": 3077,
      "dule": 3078,
      "penal": 3079,
      "Large": 3080,
      "Uni": 3081,
      "ters": 3082,
      "entity": 3083,
      "omen": 3084,
      "smaller": 3085,
      "last": 3086,
      "ping": 3087,
      "experi": 3088,
      "create": 3089,
      "remains": 3090,
      "coming": 3091,
      "constructed": 3092,
      "deterministic": 3093,
      "scienti": 3094,
      "candidate": 3095,
      "schemes": 3096,
      "digital": 3097,
      "ton": 3098,
      "dependency": 3099,
      "overcome": 3100,
      "limitations": 3101,
      "corpora": 3102,
      "Ag": 3103,
      "million": 3104,
      "principle": 3105,
      "acking": 3106,
      "pairwise": 3107,
      "Prediction": 3108,
      "silon": 3109,
      "iteration": 3110,
      "might": 3111,
      "traffic": 3112,
      "detecting": 3113,
      "typical": 3114,
      "mas": 3115,
      "sizes": 3116,
      "reducing": 3117,
      "precise": 3118,
      "incorporate": 3119,
      "regularized": 3120,
      "chain": 3121,
      "advances": 3122,
      "magnitude": 3123,
      "Dep": 3124,
      "IS": 3125,
      "desired": 3126,
      "databases": 3127,
      "stic": 3128,
      "proved": 3129,
      "Artificial": 3130,
      "implicit": 3131,
      "criteria": 3132,
      "exponential": 3133,
      "hetero": 3134,
      "before": 3135,
      "modelling": 3136,
      "AP": 3137,
      "MO": 3138,
      "decompo": 3139,
      "ird": 3140,
      "equivalent": 3141,
      "diversity": 3142,
      "correspond": 3143,
      "diagnosis": 3144,
      "phenomen": 3145,
      "itive": 3146,
      "specifically": 3147,
      "Programming": 3148,
      "almost": 3149,
      "biological": 3150,
      "ive": 3151,
      "round": 3152,
      "Temp": 3153,
      "inverse": 3154,
      "attr": 3155,
      "taken": 3156,
      "AS": 3157,
      "Evalu": 3158,
      "Man": 3159,
      "blur": 3160,
      "pass": 3161,
      "Sur": 3162,
      "items": 3163,
      "unified": 3164,
      "Knowledge": 3165,
      "onal": 3166,
      "directed": 3167,
      "contains": 3168,
      "reduces": 3169,
      "Vector": 3170,
      "naturally": 3171,
      "exhibit": 3172,
      "paradigm": 3173,
      "crowd": 3174,
      "entr": 3175,
      "life": 3176,
      "decisions": 3177,
      "tests": 3178,
      "Decision": 3179,
      "AN": 3180,
      "air": 3181,
      "decre": 3182,
      "Chinese": 3183,
      "PO": 3184,
      "dem": 3185,
      "involves": 3186,
      "Frame": 3187,
      "refer": 3188,
      "exploiting": 3189,
      "Hi": 3190,
      "atives": 3191,
      "experts": 3192,
      "optimize": 3193,
      "generalize": 3194,
      "augment": 3195,
      "IC": 3196,
      "Wi": 3197,
      "unit": 3198,
      "factorization": 3199,
      "explan": 3200,
      "quad": 3201,
      "needed": 3202,
      "fted": 3203,
      "transformations": 3204,
      "attribute": 3205,
      "Eu": 3206,
      "rup": 3207,
      "adapt": 3208,
      "^{": 3209,
      "dients": 3210,
      "systematic": 3211,
      "volu": 3212,
      "discussed": 3213,
      "sensors": 3214,
      "50": 3215,
      "distor": 3216,
      "category": 3217,
      "formulate": 3218,
      "Monte": 3219,
      "LE": 3220,
      "recor": 3221,
      "differences": 3222,
      "capac": 3223,
      "dr": 3224,
      "NIST": 3225,
      "Sup": 3226,
      "supervision": 3227,
      "recur": 3228,
      "unlabeled": 3229,
      "bot": 3230,
      "having": 3231,
      "mination": 3232,
      "mechanisms": 3233,
      "reng": 3234,
      "confidence": 3235,
      "relatively": 3236,
      "BM": 3237,
      "apid": 3238,
      "Two": 3239,
      "ove": 3240,
      "connection": 3241,
      "depends": 3242,
      "Probabil": 3243,
      "around": 3244,
      "others": 3245,
      "counter": 3246,
      "graphic": 3247,
      "health": 3248,
      "qualitative": 3249,
      "Probabilistic": 3250,
      "memb": 3251,
      "vig": 3252,
      "analyzing": 3253,
      "Representation": 3254,
      "bra": 3255,
      "mess": 3256,
      "deploy": 3257,
      "efficients": 3258,
      "GPU": 3259,
      "Nat": 3260,
      "aker": 3261,
      "modern": 3262,
      "He": 3263,
      "cum": 3264,
      "analo": 3265,
      "devices": 3266,
      "reedy": 3267,
      "Embedding": 3268,
      "progress": 3269,
      "sequently": 3270,
      "Samp": 3271,
      "dow": 3272,
      "Unlike": 3273,
      "Carlo": 3274,
      "NLP": 3275,
      "residual": 3276,
      "optical": 3277,
      "simulations": 3278,
      "hardware": 3279,
      "standing": 3280,
      "dimensions": 3281,
      "Logic": 3282,
      "lot": 3283,
      "lexical": 3284,
      "confir": 3285,
      "ides": 3286,
      "phone": 3287,
      "grammar": 3288,
      "pooling": 3289,
      "actor": 3290,
      "intern": 3291,
      "detector": 3292,
      "argue": 3293,
      "inherent": 3294,
      "Sequ": 3295,
      "Training": 3296,
      "Syn": 3297,
      "Intellig": 3298,
      "expect": 3299,
      "operation": 3300,
      "needs": 3301,
      "synthesis": 3302,
      "ibility": 3303,
      "stability": 3304,
      "morpho": 3305,
      "Function": 3306,
      "sitivity": 3307,
      "Adaptive": 3308,
      "feasible": 3309,
      "Evolution": 3310,
      "covariance": 3311,
      "plies": 3312,
      "applicable": 3313,
      "atorial": 3314,
      "_1": 3315,
      "star": 3316,
      "acti": 3317,
      "tered": 3318,
      "monit": 3319,
      "Modeling": 3320,
      "benefit": 3321,
      "Desp": 3322,
      "always": 3323,
      "Despite": 3324,
      "streng": 3325,
      "izer": 3326,
      "exist": 3327,
      "syntactic": 3328,
      "da": 3329,
      "requirements": 3330,
      "vities": 3331,
      "entire": 3332,
      "considering": 3333,
      "leverage": 3334,
      "raw": 3335,
      "From": 3336,
      "registration": 3337,
      "EG": 3338,
      "ligh": 3339,
      "containing": 3340,
      "Emp": 3341,
      "Lat": 3342,
      "abul": 3343,
      "her": 3344,
      "arm": 3345,
      "coefficients": 3346,
      "elf": 3347,
      "becomes": 3348,
      "recas": 3349,
      "Natural": 3350,
      "captured": 3351,
      "peri": 3352,
      "completion": 3353,
      "produced": 3354,
      "tackle": 3355,
      "fav": 3356,
      "onom": 3357,
      "homo": 3358,
      "baselines": 3359,
      "optimized": 3360,
      "likely": 3361,
      "established": 3362,
      "Id": 3363,
      "hts": 3364,
      "tax": 3365,
      "situations": 3366,
      "focused": 3367,
      "patients": 3368,
      "pipeline": 3369,
      "Tree": 3370,
      "Wor": 3371,
      "little": 3372,
      "minimizing": 3373,
      "ram": 3374,
      "mann": 3375,
      "engineering": 3376,
      "12": 3377,
      "LS": 3378,
      "ibr": 3379,
      "overl": 3380,
      "ternal": 3381,
      "Nets": 3382,
      "eigen": 3383,
      "hion": 3384,
      "module": 3385,
      "developing": 3386,
      "definition": 3387,
      "inion": 3388,
      "atory": 3389,
      "simpli": 3390,
      "meaningful": 3391,
      "ole": 3392,
      "static": 3393,
      "behaviour": 3394,
      "Translation": 3395,
      "manually": 3396,
      "spatio": 3397,
      "directional": 3398,
      "restricted": 3399,
      "patches": 3400,
      "isition": 3401,
      "ulty": 3402,
      "soph": 3403,
      "preserving": 3404,
      "yield": 3405,
      "increases": 3406,
      "cameras": 3407,
      "ath": 3408,
      "intelligent": 3409,
      "tor": 3410,
      "relational": 3411,
      "monot": 3412,
      "ontology": 3413,
      "comprehensive": 3414,
      "relies": 3415,
      "SAT": 3416,
      "Hierarch": 3417,
      "poor": 3418,
      "taking": 3419,
      "theoretic": 3420,
      "GANs": 3421,
      "transition": 3422,
      "DR": 3423,
      "ratic": 3424,
      "calibr": 3425,
      "Differen": 3426,
      "ocabul": 3427,
      "Ans": 3428,
      "Maxim": 3429,
      "Gene": 3430,
      "alse": 3431,
      "manip": 3432,
      "//": 3433,
      "rapid": 3434,
      "nearest": 3435,
      "shot": 3436,
      "evaluations": 3437,
      "Approxim": 3438,
      "technology": 3439,
      "effort": 3440,
      "etch": 3441,
      "manual": 3442,
      "addresses": 3443,
      "000": 3444,
      "htt": 3445,
      "://": 3446,
      "right": 3447,
      "reo": 3448,
      "anom": 3449,
      "approximations": 3450,
      "deriv": 3451,
      "next": 3452,
      "tour": 3453,
      "grained": 3454,
      "print": 3455,
      "Multiple": 3456,
      "Memory": 3457,
      "insights": 3458,
      "LM": 3459,
      "cut": 3460,
      "ered": 3461,
      "orders": 3462,
      "ensor": 3463,
      "epsilon": 3464,
      "interval": 3465,
      "Af": 3466,
      "above": 3467,
      "Inte": 3468,
      "expressions": 3469,
      "reported": 3470,
      "sts": 3471,
      "recover": 3472,
      "ectives": 3473,
      "coupl": 3474,
      "integrated": 3475,
      "autoencoder": 3476,
      "Regression": 3477,
      "detailed": 3478,
      "extracting": 3479,
      "stationary": 3480,
      "Lab": 3481,
      "preferences": 3482,
      "Matrix": 3483,
      "extremely": 3484,
      "bs": 3485,
      "cancer": 3486,
      "mbin": 3487,
      "ideas": 3488,
      "capacity": 3489,
      "characterize": 3490,
      "Minim": 3491,
      "threshold": 3492,
      "intrinsic": 3493,
      "news": 3494,
      "procedures": 3495,
      "load": 3496,
      "capability": 3497,
      "boundary": 3498,
      "heuristics": 3499,
      "MNIST": 3500,
      "potentially": 3501,
      "demonstrates": 3502,
      "partially": 3503,
      "Com": 3504,
      "bey": 3505,
      "locations": 3506,
      "independence": 3507,
      "They": 3508,
      "differenti": 3509,
      "closed": 3510,
      "illustr": 3511,
      "bandit": 3512,
      "Additionally": 3513,
      "DS": 3514,
      "Red": 3515,
      "algorithmic": 3516,
      "Extr": 3517,
      "Over": 3518,
      "priors": 3519,
      "assume": 3520,
      "Fi": 3521,
      "CC": 3522,
      "embedded": 3523,
      "witter": 3524,
      "mit": 3525,
      "carri": 3526,
      "answering": 3527,
      "FAR": 3528,
      "isting": 3529,
      "sampled": 3530,
      "observe": 3531,
      "discover": 3532,
      "Identi": 3533,
      "exts": 3534,
      "gebra": 3535,
      "tence": 3536,
      "sist": 3537,
      "privacy": 3538,
      "mainly": 3539,
      "central": 3540,
      "ressed": 3541,
      "unseen": 3542,
      "generates": 3543,
      "disease": 3544,
      "summ": 3545,
      "involving": 3546,
      "onic": 3547,
      "showed": 3548,
      "proposal": 3549,
      "IR": 3550,
      "LDA": 3551,
      "Mix": 3552,
      "ists": 3553,
      "acting": 3554,
      "jo": 3555,
      "integration": 3556,
      "activation": 3557,
      "OR": 3558,
      "own": 3559,
      "ises": 3560,
      "prun": 3561,
      "Statis": 3562,
      "Methods": 3563,
      "represents": 3564,
      "measurement": 3565,
      "increasingly": 3566,
      "concern": 3567,
      "Empir": 3568,
      "false": 3569,
      "inger": 3570,
      "Boost": 3571,
      "%.": 3572,
      "vered": 3573,
      "fashion": 3574,
      "RNNs": 3575,
      "ry": 3576,
      "itself": 3577,
      "currently": 3578,
      "ImageNet": 3579,
      "marginal": 3580,
      "dustr": 3581,
      "latter": 3582,
      "Action": 3583,
      "enab": 3584,
      "arity": 3585,
      "optimizing": 3586,
      "umer": 3587,
      "scaling": 3588,
      "Selection": 3589,
      "Gradient": 3590,
      "external": 3591,
      "difficulty": 3592,
      "Temporal": 3593,
      "Be": 3594,
      "wid": 3595,
      "evaluating": 3596,
      "sched": 3597,
      "neuro": 3598,
      "distinct": 3599,
      "activities": 3600,
      "five": 3601,
      "emph": 3602,
      "chosen": 3603,
      "Pol": 3604,
      "Unsupervised": 3605,
      "IT": 3606,
      "door": 3607,
      "Features": 3608,
      "interpretable": 3609,
      "treatment": 3610,
      "Vi": 3611,
      "elec": 3612,
      "emotion": 3613,
      "facts": 3614,
      "introducing": 3615,
      "patient": 3616,
      "HMM": 3617,
      "incorporating": 3618,
      "collabor": 3619,
      "lished": 3620,
      "conduct": 3621,
      "acquisition": 3622,
      "ili": 3623,
      "identified": 3624,
      "scientific": 3625,
      "mus": 3626,
      "codes": 3627,
      "perception": 3628,
      "examine": 3629,
      "Speech": 3630,
      "Framework": 3631,
      "strength": 3632,
      "combinatorial": 3633,
      "SGD": 3634,
      "greedy": 3635,
      "convers": 3636,
      "Real": 3637,
      "early": 3638,
      "utilize": 3639,
      "icon": 3640,
      "assessment": 3641,
      "Twitter": 3642,
      "asso": 3643,
      "Existing": 3644,
      "investigated": 3645,
      "guarantee": 3646,
      "kind": 3647,
      "vocabul": 3648,
      "repe": 3649,
      "15": 3650,
      "Fil": 3651,
      "landmark": 3652,
      "navig": 3653,
      "redund": 3654,
      "predicted": 3655,
      "lingual": 3656,
      "measured": 3657,
      "transp": 3658,
      "CIFAR": 3659,
      "CS": 3660,
      "moving": 3661,
      "virt": 3662,
      "Compar": 3663,
      "unities": 3664,
      "universal": 3665,
      "detectors": 3666,
      "offers": 3667,
      "separate": 3668,
      "running": 3669,
      "hence": 3670,
      "utter": 3671,
      "abstract": 3672,
      "survey": 3673,
      "Support": 3674,
      "ink": 3675,
      "material": 3676,
      "Supervised": 3677,
      "Ge": 3678,
      "lines": 3679,
      "elimin": 3680,
      "experimentally": 3681,
      "Bi": 3682,
      "analyzed": 3683,
      "simpl": 3684,
      "Both": 3685,
      "determined": 3686,
      "dependence": 3687,
      "surro": 3688,
      "site": 3689,
      "cover": 3690,
      "look": 3691,
      "black": 3692,
      "late": 3693,
      "arith": 3694,
      "interactive": 3695,
      "producing": 3696,
      "recommendation": 3697,
      "DF": 3698,
      "ES": 3699,
      "edical": 3700,
      "ranch": 3701,
      "encour": 3702,
      "Pri": 3703,
      "Ter": 3704,
      "enough": 3705,
      "regard": 3706,
      "audio": 3707,
      "exploits": 3708,
      "MP": 3709,
      "spo": 3710,
      "opinion": 3711,
      "DNNs": 3712,
      "beyond": 3713,
      "ull": 3714,
      "adjust": 3715,
      "consisting": 3716,
      "contribut": 3717,
      "relimin": 3718,
      "verification": 3719,
      "Eucl": 3720,
      "aren": 3721,
      "gradients": 3722,
      "idean": 3723,
      "contributions": 3724,
      "modified": 3725,
      "period": 3726,
      "Task": 3727,
      "ditive": 3728,
      "General": 3729,
      "details": 3730,
      "Tech": 3731,
      "conc": 3732,
      "tering": 3733,
      "individuals": 3734,
      "Through": 3735,
      "tein": 3736,
      "capabilities": 3737,
      "platform": 3738,
      "itation": 3739,
      "State": 3740,
      "Problem": 3741,
      "outliers": 3742,
      "hin": 3743,
      "modi": 3744,
      "unc": 3745,
      "modeled": 3746,
      "heterogeneous": 3747,
      "rout": 3748,
      "acts": 3749,
      "eck": 3750,
      "desir": 3751,
      "distances": 3752,
      "Arab": 3753,
      "usage": 3754,
      "conj": 3755,
      "ray": 3756,
      "strongly": 3757,
      "Domain": 3758,
      "plays": 3759,
      "mediate": 3760,
      "Genetic": 3761,
      "eting": 3762,
      "relevance": 3763,
      "MAP": 3764,
      "reliminary": 3765,
      "Theory": 3766,
      "imply": 3767,
      "Spati": 3768,
      "directions": 3769,
      "descriptor": 3770,
      "piec": 3771,
      "Hierarchical": 3772,
      "cro": 3773,
      "section": 3774,
      "domin": 3775,
      "Towards": 3776,
      "explored": 3777,
      "neighborhood": 3778,
      "Nor": 3779,
      "inf": 3780,
      "industr": 3781,
      "acous": 3782,
      "particip": 3783,
      "crafted": 3784,
      "DB": 3785,
      "multimodal": 3786,
      "requiring": 3787,
      "extends": 3788,
      "growing": 3789,
      "Latent": 3790,
      "nical": 3791,
      "captures": 3792,
      "16": 3793,
      "rain": 3794,
      "sensitivity": 3795,
      "Scale": 3796,
      "driving": 3797,
      "histo": 3798,
      "minimize": 3799,
      "encode": 3800,
      "Low": 3801,
      "window": 3802,
      "Euclidean": 3803,
      "og": 3804,
      "twe": 3805,
      "refine": 3806,
      "suf": 3807,
      "ME": 3808,
      "ulated": 3809,
      "adding": 3810,
      "Simil": 3811,
      "phrase": 3812,
      "demand": 3813,
      "proxim": 3814,
      "loop": 3815,
      "volume": 3816,
      "internal": 3817,
      "management": 3818,
      "Combin": 3819,
      "mixed": 3820,
      "updates": 3821,
      "attacks": 3822,
      "CRF": 3823,
      "%,": 3824,
      "offer": 3825,
      "costs": 3826,
      "modalities": 3827,
      "quadratic": 3828,
      "width": 3829,
      "tices": 3830,
      "2015": 3831,
      "Regular": 3832,
      "desirable": 3833,
      "Sc": 3834,
      "segments": 3835,
      "shapes": 3836,
      "hierarchy": 3837,
      "Wik": 3838,
      "proven": 3839,
      "secur": 3840,
      "dialogue": 3841,
      "ier": 3842,
      "proving": 3843,
      "specified": 3844,
      "monitoring": 3845,
      "AE": 3846,
      "extensions": 3847,
      "ban": 3848,
      "created": 3849,
      "Mean": 3850,
      "findings": 3851,
      "carried": 3852,
      "ulations": 3853,
      "pout": 3854,
      "Conv": 3855,
      "validat": 3856,
      "constit": 3857,
      "plac": 3858,
      "mathcal": 3859,
      "Plan": 3860,
      "recasting": 3861,
      "hashing": 3862,
      "multivariate": 3863,
      "Label": 3864,
      "Top": 3865,
      "iness": 3866,
      "2016": 3867,
      "tend": 3868,
      "struction": 3869,
      "robots": 3870,
      "Variational": 3871,
      "ca": 3872,
      "infinite": 3873,
      "che": 3874,
      "performances": 3875,
      "fair": 3876,
      "Evaluation": 3877,
      "Arabic": 3878,
      "tives": 3879,
      "ender": 3880,
      "synap": 3881,
      "integrate": 3882,
      "substanti": 3883,
      "bits": 3884,
      "substan": 3885,
      "Match": 3886,
      "belong": 3887,
      "diffusion": 3888,
      "nonparametric": 3889,
      "solvers": 3890,
      "Sing": 3891,
      "slow": 3892,
      "ecting": 3893,
      "differential": 3894,
      "Complex": 3895,
      "recognize": 3896,
      "mutation": 3897,
      "security": 3898,
      "tis": 3899,
      "formulated": 3900,
      "members": 3901,
      "descriptions": 3902,
      "All": 3903,
      "Four": 3904,
      "TS": 3905,
      "rees": 3906,
      "split": 3907,
      "contexts": 3908,
      "focuses": 3909,
      "vehicle": 3910,
      "Ns": 3911,
      "quick": 3912,
      "Tracking": 3913,
      "aspect": 3914,
      "vocabulary": 3915,
      "ie": 3916,
      "prising": 3917,
      "item": 3918,
      "selecting": 3919,
      "hu": 3920,
      "handling": 3921,
      "mathb": 3922,
      "divergence": 3923,
      "intuitive": 3924,
      "\\%": 3925,
      "generator": 3926,
      "similarities": 3927,
      "law": 3928,
      "sharing": 3929,
      "acoustic": 3930,
      "CO": 3931,
      "favor": 3932,
      "fect": 3933,
      "Rank": 3934,
      "imag": 3935,
      "designing": 3936,
      "Fuzzy": 3937,
      "CF": 3938,
      "Set": 3939,
      "algebra": 3940,
      "estri": 3941,
      "illumination": 3942,
      "helps": 3943,
      "cript": 3944,
      "Intelligence": 3945,
      "RO": 3946,
      "hor": 3947,
      "ancing": 3948,
      "sound": 3949,
      "theoretically": 3950,
      "Attention": 3951,
      "suggests": 3952,
      "correlated": 3953,
      "insight": 3954,
      "phrases": 3955,
      "informative": 3956,
      "tit": 3957,
      "prov": 3958,
      "substantial": 3959,
      "Distributed": 3960,
      "ready": 3961,
      "Ro": 3962,
      "pure": 3963,
      "Map": 3964,
      "ror": 3965,
      "ades": 3966,
      "correlations": 3967,
      "increased": 3968,
      "Previous": 3969,
      "too": 3970,
      "regar": 3971,
      "Chall": 3972,
      "After": 3973,
      "Empirical": 3974,
      "branch": 3975,
      "ire": 3976,
      "atom": 3977,
      "characters": 3978,
      "cloud": 3979,
      "weakly": 3980,
      "independently": 3981,
      "stereo": 3982,
      "adapted": 3983,
      "decoding": 3984,
      "possibility": 3985,
      "oriented": 3986,
      "recursive": 3987,
      "desp": 3988,
      "computations": 3989,
      "biased": 3990,
      "summarization": 3991,
      "bag": 3992,
      "har": 3993,
      "Each": 3994,
      "ske": 3995,
      "agree": 3996,
      "stud": 3997,
      "existence": 3998,
      "Factor": 3999,
      "recall": 4000,
      "bounding": 4001,
      "resol": 4002,
      "asymptotic": 4003,
      "experience": 4004,
      "usti": 4005,
      "complic": 4006,
      "bin": 4007,
      "acle": 4008,
      "corrup": 4009,
      "numbers": 4010,
      "scalability": 4011,
      "cription": 4012,
      "aggregation": 4013,
      "DT": 4014,
      "})$": 4015,
      "Instead": 4016,
      "ited": 4017,
      "coring": 4018,
      "consistently": 4019,
      "Some": 4020,
      "Can": 4021,
      "bri": 4022,
      "uling": 4023,
      "discre": 4024,
      "fitness": 4025,
      "normalization": 4026,
      "trajectories": 4027,
      "30": 4028,
      "Lap": 4029,
      "Long": 4030,
      "len": 4031,
      "trivi": 4032,
      "olean": 4033,
      "ANN": 4034,
      "theorem": 4035,
      "warm": 4036,
      "involved": 4037,
      "separation": 4038,
      "amounts": 4039,
      "Processing": 4040,
      "14": 4041,
      "grid": 4042,
      "ites": 4043,
      "technical": 4044,
      "incremental": 4045,
      "sketch": 4046,
      "attempt": 4047,
      "shift": 4048,
      "actual": 4049,
      "libr": 4050,
      "balance": 4051,
      "Dir": 4052,
      "Several": 4053,
      "responses": 4054,
      "writing": 4055,
      "MDPs": 4056,
      "turing": 4057,
      "namical": 4058,
      "Compared": 4059,
      "counting": 4060,
      "2017": 4061,
      "combinations": 4062,
      "followed": 4063,
      "subjects": 4064,
      "facilitate": 4065,
      "Statistical": 4066,
      "substantially": 4067,
      "Machines": 4068,
      "boundaries": 4069,
      "applicability": 4070,
      "End": 4071,
      "comparisons": 4072,
      "EC": 4073,
      "eta": 4074,
      "Conditional": 4075,
      "collaborative": 4076,
      "Pat": 4077,
      "gate": 4078,
      "lier": 4079,
      "association": 4080,
      "Optimal": 4081,
      "boosting": 4082,
      "cause": 4083,
      "eye": 4084,
      "wal": 4085,
      "squares": 4086,
      "NMT": 4087,
      "objectives": 4088,
      "despite": 4089,
      "thog": 4090,
      "Mod": 4091,
      "quite": 4092,
      "motivated": 4093,
      "execution": 4094,
      "suffer": 4095,
      "incomplete": 4096,
      "tries": 4097,
      "aling": 4098,
      "trum": 4099,
      "learner": 4100,
      "share": 4101,
      "hypotheses": 4102,
      "controlled": 4103,
      "casc": 4104,
      "massive": 4105,
      "bly": 4106,
      "thous": 4107,
      "approximately": 4108,
      "acquired": 4109,
      "principles": 4110,
      "intensity": 4111,
      "tren": 4112,
      "additive": 4113,
      "radi": 4114,
      "ichlet": 4115,
      "representative": 4116,
      "exists": 4117,
      "balanced": 4118,
      "published": 4119,
      "Short": 4120,
      "Dirichlet": 4121,
      "lever": 4122,
      "detected": 4123,
      "salient": 4124,
      "LR": 4125,
      "ung": 4126,
      "ading": 4127,
      "equations": 4128,
      "Current": 4129,
      "ening": 4130,
      "stages": 4131,
      "keep": 4132,
      "cues": 4133,
      "kinds": 4134,
      "coordinate": 4135,
      "already": 4136,
      "illance": 4137,
      "ordering": 4138,
      "phic": 4139,
      "sitional": 4140,
      "custom": 4141,
      "Pers": 4142,
      "labor": 4143,
      "speaker": 4144,
      "expressed": 4145,
      "Generation": 4146,
      "penalty": 4147,
      "teach": 4148,
      "preference": 4149,
      "umn": 4150,
      "origin": 4151,
      "blocks": 4152,
      "logistic": 4153,
      "complementary": 4154,
      "Application": 4155,
      "Lapl": 4156,
      "AB": 4157,
      "rating": 4158,
      "tual": 4159,
      "stor": 4160,
      "constructing": 4161,
      "principal": 4162,
      "answers": 4163,
      "trivial": 4164,
      "sq": 4165,
      "compressed": 4166,
      "matically": 4167,
      "mission": 4168,
      "199": 4169,
      "\",": 4170,
      "mun": 4171,
      "wavelet": 4172,
      "FT": 4173,
      "mul": 4174,
      "psy": 4175,
      "interpo": 4176,
      "considerable": 4177,
      "lexicon": 4178,
      "reasonable": 4179,
      "covering": 4180,
      "effic": 4181,
      "analyses": 4182,
      "subspaces": 4183,
      "virtual": 4184,
      "sqrt": 4185,
      "nets": 4186,
      "fications": 4187,
      "flexibility": 4188,
      "examin": 4189,
      "trajectory": 4190,
      "Pattern": 4191,
      "sized": 4192,
      "Reason": 4193,
      "converge": 4194,
      "implementations": 4195,
      "Transfer": 4196,
      "protocol": 4197,
      "symmetric": 4198,
      "Understanding": 4199,
      "return": 4200,
      "coar": 4201,
      "ectivity": 4202,
      "ays": 4203,
      "mention": 4204,
      "Tensor": 4205,
      "pain": 4206,
      "Meas": 4207,
      "paths": 4208,
      "NE": 4209,
      "fewer": 4210,
      "idates": 4211,
      "aged": 4212,
      "solver": 4213,
      "behaviors": 4214,
      "utilizing": 4215,
      "involve": 4216,
      "proposals": 4217,
      "list": 4218,
      "priori": 4219,
      "regarding": 4220,
      "classifying": 4221,
      "modality": 4222,
      "verify": 4223,
      "Contro": 4224,
      "efficacy": 4225,
      "LU": 4226,
      "aking": 4227,
      "degrad": 4228,
      "ids": 4229,
      "Ques": 4230,
      "curve": 4231,
      "correction": 4232,
      "umor": 4233,
      "streams": 4234,
      "SD": 4235,
      "finger": 4236,
      "hal": 4237,
      "udo": 4238,
      "seudo": 4239,
      "Intern": 4240,
      "composed": 4241,
      "Dataset": 4242,
      "elief": 4243,
      "initialization": 4244,
      "loo": 4245,
      "outcomes": 4246,
      "Extraction": 4247,
      "SO": 4248,
      "fron": 4249,
      "implic": 4250,
      "capturing": 4251,
      "handwritten": 4252,
      "characterization": 4253,
      "cells": 4254,
      "RF": 4255,
      "tz": 4256,
      "semb": 4257,
      "situation": 4258,
      "ASP": 4259,
      "Self": 4260,
      "II": 4261,
      "If": 4262,
      "Ser": 4263,
      "completely": 4264,
      "Dimension": 4265,
      "stra": 4266,
      "fraction": 4267,
      "drawn": 4268,
      "distortion": 4269,
      "Evolutionary": 4270,
      "intermediate": 4271,
      "tempor": 4272,
      "occurrence": 4273,
      "occlusion": 4274,
      "Sampling": 4275,
      "clic": 4276,
      "Computer": 4277,
      "witch": 4278,
      "orientation": 4279,
      "maintaining": 4280,
      "confirm": 4281,
      "CD": 4282,
      "Cross": 4283,
      "scap": 4284,
      "start": 4285,
      "accomp": 4286,
      "Theore": 4287,
      "plau": 4288,
      "ception": 4289,
      "thereby": 4290,
      "Perform": 4291,
      "Geo": 4292,
      "Term": 4293,
      "hold": 4294,
      "justi": 4295,
      "table": 4296,
      "onical": 4297,
      "mption": 4298,
      "Expl": 4299,
      "ocular": 4300,
      "obtaining": 4301,
      "randomized": 4302,
      "maximize": 4303,
      "Discrimin": 4304,
      "huge": 4305,
      "motions": 4306,
      "smart": 4307,
      "addressed": 4308,
      "equal": 4309,
      "Structured": 4310,
      "augmented": 4311,
      "\".": 4312,
      "Bu": 4313,
      "Numer": 4314,
      "estimators": 4315,
      "Fourier": 4316,
      "But": 4317,
      "NMF": 4318,
      "suited": 4319,
      "enhanced": 4320,
      "authors": 4321,
      "monotonic": 4322,
      "Belief": 4323,
      "ric": 4324,
      "ster": 4325,
      "considers": 4326,
      "logically": 4327,
      "Ra": 4328,
      "vey": 4329,
      "contour": 4330,
      "How": 4331,
      "correctly": 4332,
      "superiority": 4333,
      "mutual": 4334,
      "topology": 4335,
      "def": 4336,
      "izon": 4337,
      "discourse": 4338,
      "circu": 4339,
      "Applications": 4340,
      "relaxation": 4341,
      "AL": 4342,
      "Out": 4343,
      "card": 4344,
      "iding": 4345,
      "mask": 4346,
      "theories": 4347,
      "encoded": 4348,
      "expressive": 4349,
      "storage": 4350,
      "AT": 4351,
      "wi": 4352,
      "Representations": 4353,
      "configuration": 4354,
      "market": 4355,
      "Stu": 4356,
      "Distribution": 4357,
      "adopted": 4358,
      "validated": 4359,
      "13": 4360,
      "SE": 4361,
      "jud": 4362,
      "thor": 4363,
      "iterations": 4364,
      "locally": 4365,
      "guaranteed": 4366,
      "greatly": 4367,
      "induced": 4368,
      "candidates": 4369,
      "frameworks": 4370,
      "Space": 4371,
      "pedestri": 4372,
      "Flow": 4373,
      "Inspired": 4374,
      "caption": 4375,
      "possibly": 4376,
      "Recon": 4377,
      "majority": 4378,
      "Matching": 4379,
      "Den": 4380,
      "preliminary": 4381,
      "propor": 4382,
      "identity": 4383,
      "visualization": 4384,
      "Open": 4385,
      "symbolic": 4386,
      "pruning": 4387,
      "Reasoning": 4388,
      "Joint": 4389,
      "Sen": 4390,
      "scre": 4391,
      "versions": 4392,
      "uction": 4393,
      "column": 4394,
      "matches": 4395,
      "chronous": 4396,
      "80": 4397,
      "mise": 4398,
      "perfect": 4399,
      "guide": 4400,
      "service": 4401,
      "conflic": 4402,
      "affect": 4403,
      "consuming": 4404,
      "navigation": 4405,
      "why": 4406,
      "oltz": 4407,
      "tight": 4408,
      "quickly": 4409,
      "25": 4410,
      "water": 4411,
      "orical": 4412,
      "leveraging": 4413,
      "acted": 4414,
      "ford": 4415,
      "afety": 4416,
      "angle": 4417,
      "enhancement": 4418,
      "efforts": 4419,
      "Sign": 4420,
      "ucle": 4421,
      "generalizes": 4422,
      "Class": 4423,
      "DD": 4424,
      "ssess": 4425,
      "characterized": 4426,
      "Arch": 4427,
      "primary": 4428,
      "choose": 4429,
      "ders": 4430,
      "ries": 4431,
      "multiplic": 4432,
      "Wikip": 4433,
      "remark": 4434,
      "coherent": 4435,
      "emphas": 4436,
      "enabling": 4437,
      "thogonal": 4438,
      "fortun": 4439,
      "reground": 4440,
      "dynamical": 4441,
      "largely": 4442,
      "Semi": 4443,
      "reviews": 4444,
      "nearly": 4445,
      "coupled": 4446,
      "simply": 4447,
      "left": 4448,
      "interface": 4449,
      "advance": 4450,
      "utilized": 4451,
      "Boolean": 4452,
      "links": 4453,
      "polar": 4454,
      "Retrieval": 4455,
      "converges": 4456,
      "modules": 4457,
      "scopy": 4458,
      "choices": 4459,
      "simpler": 4460,
      "Wikipedia": 4461,
      "thesis": 4462,
      "devi": 4463,
      "deci": 4464,
      "variability": 4465,
      "iteratively": 4466,
      "randomly": 4467,
      "forecasting": 4468,
      "Quanti": 4469,
      "Shap": 4470,
      "dealing": 4471,
      "hind": 4472,
      "Glo": 4473,
      "Indi": 4474,
      "2012": 4475,
      "determining": 4476,
      "received": 4477,
      "my": 4478,
      "lesion": 4479,
      "numerous": 4480,
      "MCMC": 4481,
      "surveillance": 4482,
      "Single": 4483,
      "Due": 4484,
      "limits": 4485,
      "extensively": 4486,
      "Boltz": 4487,
      "fill": 4488,
      "onent": 4489,
      "agno": 4490,
      "bases": 4491,
      "formula": 4492,
      "Processes": 4493,
      "Different": 4494,
      "skelet": 4495,
      "Person": 4496,
      "fortunately": 4497,
      "Er": 4498,
      "spectrum": 4499,
      "maximization": 4500,
      "quantization": 4501,
      "Classifi": 4502,
      "https": 4503,
      "straight": 4504,
      "EEG": 4505,
      "itions": 4506,
      "ulate": 4507,
      "aux": 4508,
      "Character": 4509,
      "gains": 4510,
      "View": 4511,
      "Gu": 4512,
      "tively": 4513,
      "particle": 4514,
      "allevi": 4515,
      "exactly": 4516,
      "Social": 4517,
      "technologies": 4518,
      "expectation": 4519,
      "Is": 4520,
      "thing": 4521,
      "Context": 4522,
      "depending": 4523,
      "Boltzmann": 4524,
      "NR": 4525,
      "pha": 4526,
      "six": 4527,
      "changing": 4528,
      "surprising": 4529,
      "alternatives": 4530,
      "Hence": 4531,
      "NL": 4532,
      "Sol": 4533,
      "scoring": 4534,
      "applies": 4535,
      "goals": 4536,
      "runtime": 4537,
      "Pose": 4538,
      "CM": 4539,
      "FP": 4540,
      "Ty": 4541,
      "Ver": 4542,
      "bed": 4543,
      "book": 4544,
      "classified": 4545,
      "speedup": 4546,
      "incorporates": 4547,
      "attempts": 4548,
      "11": 4549,
      "optimum": 4550,
      "alternating": 4551,
      "perturbations": 4552,
      "esides": 4553,
      "tagging": 4554,
      "Princi": 4555,
      "history": 4556,
      "Fac": 4557,
      "stack": 4558,
      "epis": 4559,
      "Accur": 4560,
      "dictionaries": 4561,
      "square": 4562,
      "coarse": 4563,
      "entries": 4564,
      "advanced": 4565,
      "articles": 4566,
      "arent": 4567,
      "TI": 4568,
      "bus": 4569,
      "igno": 4570,
      "fault": 4571,
      "augmentation": 4572,
      "calibration": 4573,
      "Ab": 4574,
      "\\'": 4575,
      "ensure": 4576,
      "viewed": 4577,
      "Dist": 4578,
      "Parame": 4579,
      "las": 4580,
      "acies": 4581,
      "guided": 4582,
      "products": 4583,
      "ibri": 4584,
      "iliary": 4585,
      "xel": 4586,
      "highlight": 4587,
      "employs": 4588,
      "lind": 4589,
      "Active": 4590,
      "phenomena": 4591,
      "Performance": 4592,
      "ever": 4593,
      "optimality": 4594,
      "biom": 4595,
      "remote": 4596,
      "equivalence": 4597,
      "Challenge": 4598,
      "attain": 4599,
      "working": 4600,
      "adj": 4601,
      "herence": 4602,
      "center": 4603,
      "robotic": 4604,
      "ambda": 4605,
      "horizon": 4606,
      "linearly": 4607,
      "complicated": 4608,
      "Fore": 4609,
      "Hand": 4610,
      "pack": 4611,
      "ilibri": 4612,
      "dering": 4613,
      "nian": 4614,
      "mixing": 4615,
      "tuned": 4616,
      "reading": 4617,
      "assignment": 4618,
      "refin": 4619,
      "olding": 4620,
      "file": 4621,
      "yiel": 4622,
      "serve": 4623,
      "Hyper": 4624,
      "].": 4625,
      "ck": 4626,
      "city": 4627,
      "mode": 4628,
      "overfitting": 4629,
      "dences": 4630,
      "Also": 4631,
      "assumed": 4632,
      "player": 4633,
      "lighting": 4634,
      "extent": 4635,
      "classic": 4636,
      "believe": 4637,
      "90": 4638,
      "outcome": 4639,
      "reconstruct": 4640,
      "skill": 4641,
      "reflect": 4642,
      "counts": 4643,
      "exploited": 4644,
      "music": 4645,
      "Gro": 4646,
      "Hil": 4647,
      "gent": 4648,
      "pping": 4649,
      "tu": 4650,
      "orous": 4651,
      "deform": 4652,
      "worst": 4653,
      "commer": 4654,
      "normalized": 4655,
      "morphological": 4656,
      "BO": 4657,
      "Qual": 4658,
      "rational": 4659,
      "vation": 4660,
      "asser": 4661,
      "demonstrating": 4662,
      "personal": 4663,
      "Problems": 4664,
      "Caus": 4665,
      "Iter": 4666,
      "third": 4667,
      "rewards": 4668,
      "accept": 4669,
      "setup": 4670,
      "whereas": 4671,
      "mostly": 4672,
      "Weigh": 4673,
      "losses": 4674,
      "utilizes": 4675,
      "describing": 4676,
      "iii": 4677,
      "interpretability": 4678,
      "vehicles": 4679,
      "Lasso": 4680,
      "Point": 4681,
      "anim": 4682,
      "subsets": 4683,
      "requirement": 4684,
      "Mining": 4685,
      "correspondence": 4686,
      "Laplac": 4687,
      "60": 4688,
      "nar": 4689,
      "Uncertain": 4690,
      "employing": 4691,
      "Back": 4692,
      "CL": 4693,
      "Ms": 4694,
      "safety": 4695,
      "processed": 4696,
      "foreground": 4697,
      "targets": 4698,
      "equation": 4699,
      "maximizing": 4700,
      "dropout": 4701,
      "pseudo": 4702,
      "anish": 4703,
      "izers": 4704,
      "connectivity": 4705,
      "frequently": 4706,
      "Depend": 4707,
      "Identification": 4708,
      "rare": 4709,
      "retain": 4710,
      "bert": 4711,
      "conclude": 4712,
      "differentiable": 4713,
      "tissu": 4714,
      "Sk": 4715,
      "Soft": 4716,
      "entail": 4717,
      "creating": 4718,
      "axio": 4719,
      "greater": 4720,
      "tweets": 4721,
      "..": 4722,
      "RE": 4723,
      "rotation": 4724,
      "iction": 4725,
      "logarith": 4726,
      "solute": 4727,
      "Motiv": 4728,
      "Generalized": 4729,
      "robotics": 4730,
      "growth": 4731,
      "17": 4732,
      "Dri": 4733,
      "lambda": 4734,
      "reser": 4735,
      "fiability": 4736,
      "finally": 4737,
      "patho": 4738,
      "operate": 4739,
      "dynamically": 4740,
      "Computational": 4741,
      "Design": 4742,
      "scheduling": 4743,
      "AV": 4744,
      "Band": 4745,
      "Cap": 4746,
      "FCN": 4747,
      "moment": 4748,
      "mography": 4749,
      "drawback": 4750,
      "thousands": 4751,
      "leverages": 4752,
      "Fish": 4753,
      "HO": 4754,
      "Sum": 4755,
      "positions": 4756,
      "behind": 4757,
      "distributional": 4758,
      "Disco": 4759,
      "integrating": 4760,
      "separately": 4761,
      "adequ": 4762,
      "fall": 4763,
      "alone": 4764,
      "compati": 4765,
      "landscap": 4766,
      "rigid": 4767,
      "Clo": 4768,
      "intra": 4769,
      "dee": 4770,
      "services": 4771,
      "communities": 4772,
      "Hybrid": 4773,
      "Fo": 4774,
      "intractable": 4775,
      "ash": 4776,
      "token": 4777,
      "expan": 4778,
      "arguments": 4779,
      "Obj": 4780,
      "referred": 4781,
      "explanation": 4782,
      "Buil": 4783,
      "ithub": 4784,
      "measuring": 4785,
      "plane": 4786,
      "CAL": 4787,
      "suggested": 4788,
      "supports": 4789,
      "passing": 4790,
      "Question": 4791,
      "Doc": 4792,
      "gin": 4793,
      "ow": 4794,
      "excell": 4795,
      "parser": 4796,
      "nonconvex": 4797,
      "Unfortunately": 4798,
      "Automated": 4799,
      "reliability": 4800,
      "calculus": 4801,
      "configurations": 4802,
      "rigorous": 4803,
      "message": 4804,
      "overlapping": 4805,
      "Answ": 4806,
      "},": 4807,
      "device": 4808,
      "mata": 4809,
      "sequent": 4810,
      "viewpoint": 4811,
      "Transform": 4812,
      "F1": 4813,
      "IP": 4814,
      "arise": 4815,
      "minimax": 4816,
      "artifacts": 4817,
      "Constraint": 4818,
      "Polic": 4819,
      "],": 4820,
      "lass": 4821,
      "tlen": 4822,
      "protein": 4823,
      "span": 4824,
      "carefully": 4825,
      "principled": 4826,
      "Techniqu": 4827,
      "VOC": 4828,
      "added": 4829,
      "optimisation": 4830,
      "projections": 4831,
      "subjective": 4832,
      "transport": 4833,
      "brief": 4834,
      "bally": 4835,
      "ological": 4836,
      "hash": 4837,
      "interven": 4838,
      "sourcing": 4839,
      "conceptual": 4840,
      "competition": 4841,
      "anomaly": 4842,
      "nucle": 4843,
      "ony": 4844,
      "atell": 4845,
      "mannian": 4846,
      "ulties": 4847,
      "overview": 4848,
      "physics": 4849,
      "symmetry": 4850,
      "analog": 4851,
      "vs": 4852,
      "plans": 4853,
      "Architect": 4854,
      "CV": 4855,
      "GG": 4856,
      "frag": 4857,
      "agreement": 4858,
      "Hilbert": 4859,
      "99": 4860,
      "IN": 4861,
      "Max": 4862,
      "predicts": 4863,
      "controller": 4864,
      "drug": 4865,
      "auxiliary": 4866,
      "Eff": 4867,
      "Vision": 4868,
      "bur": 4869,
      "although": 4870,
      "concentr": 4871,
      "valuable": 4872,
      "operative": 4873,
      "Graphs": 4874,
      "Gram": 4875,
      "Goog": 4876,
      "Similarity": 4877,
      "Study": 4878,
      "excellent": 4879,
      "_2": 4880,
      "ou": 4881,
      "atten": 4882,
      "modes": 4883,
      "finity": 4884,
      "encoders": 4885,
      "updating": 4886,
      "github": 4887,
      "propositional": 4888,
      "papers": 4889,
      "investigation": 4890,
      "closely": 4891,
      "Continu": 4892,
      "SC": 4893,
      "Inde": 4894,
      "stein": 4895,
      "Dial": 4896,
      "invariance": 4897,
      "promise": 4898,
      "intensive": 4899,
      "defining": 4900,
      "compositional": 4901,
      "causes": 4902,
      "recognizing": 4903,
      "calculated": 4904,
      "sophistic": 4905,
      "Spatial": 4906,
      "Reconstruction": 4907,
      "Binary": 4908,
      "Valu": 4909,
      "ranging": 4910,
      "difficulties": 4911,
      "ontologies": 4912,
      "coverage": 4913,
      "note": 4914,
      "undred": 4915,
      "bud": 4916,
      "Onto": 4917,
      "forest": 4918,
      "electron": 4919,
      "corrupted": 4920,
      "Laplacian": 4921,
      "Gib": 4922,
      "Part": 4923,
      "arri": 4924,
      "visible": 4925,
      "finds": 4926,
      "submodular": 4927,
      "interested": 4928,
      "Parallel": 4929,
      "platforms": 4930,
      "Maximum": 4931,
      "Topic": 4932,
      "Numerical": 4933,
      "lies": 4934,
      "accuracies": 4935,
      "Motion": 4936,
      "template": 4937,
      "prototype": 4938,
      "modify": 4939,
      "proximal": 4940,
      "vity": 4941,
      "armed": 4942,
      "odes": 4943,
      "hot": 4944,
      "Propag": 4945,
      "production": 4946,
      "fficiently": 4947,
      "What": 4948,
      "perceptual": 4949,
      "author": 4950,
      "Planning": 4951,
      "library": 4952,
      "Fisher": 4953,
      "budget": 4954,
      "pay": 4955,
      "comparative": 4956,
      "quantify": 4957,
      "carry": 4958,
      "mentioned": 4959,
      "/\\": 4960,
      "rise": 4961,
      "coefficient": 4962,
      "visually": 4963,
      "preprocessing": 4964,
      "adopt": 4965,
      "private": 4966,
      "hundred": 4967,
      "uds": 4968,
      "gender": 4969,
      "semantically": 4970,
      "earlier": 4971,
      "discussion": 4972,
      "offline": 4973,
      "Spectral": 4974,
      "sensus": 4975,
      "topological": 4976,
      "starting": 4977,
      "provably": 4978,
      "Bio": 4979,
      "cast": 4980,
      "aster": 4981,
      "absolute": 4982,
      "ended": 4983,
      "simplic": 4984,
      "satisfy": 4985,
      "GR": 4986,
      "tens": 4987,
      "board": 4988,
      "break": 4989,
      "caused": 4990,
      "painting": 4991,
      "18": 4992,
      "NA": 4993,
      "ully": 4994,
      "netic": 4995,
      "canonical": 4996,
      "outperforming": 4997,
      "stood": 4998,
      "2014": 4999,
      "voxel": 5000,
      "contribute": 5001,
      "sities": 5002,
      "ilies": 5003,
      "players": 5004,
      "emerging": 5005,
      "phenomenon": 5006,
      "rapidly": 5007,
      "plausible": 5008,
      "Answering": 5009,
      "Gibbs": 5010,
      "PAS": 5011,
      "Rie": 5012,
      "Stre": 5013,
      "argument": 5014,
      "skeleton": 5015,
      "Mic": 5016,
      "Sha": 5017,
      "}.": 5018,
      "alpha": 5019,
      "ented": 5020,
      "urban": 5021,
      "competing": 5022,
      "opport": 5023,
      "understood": 5024,
      "manifolds": 5025,
      "Key": 5026,
      "Ph": 5027,
      "extra": 5028,
      "ource": 5029,
      "gran": 5030,
      "And": 5031,
      "Enh": 5032,
      "usefulness": 5033,
      "runs": 5034,
      "straightforward": 5035,
      "Because": 5036,
      "HR": 5037,
      "hour": 5038,
      "curves": 5039,
      "lock": 5040,
      "characteristic": 5041,
      "categorization": 5042,
      "OCO": 5043,
      "Motivated": 5044,
      "PR": 5045,
      "Py": 5046,
      "slight": 5047,
      "allocation": 5048,
      "orthogonal": 5049,
      "assist": 5050,
      "activations": 5051,
      "cros": 5052,
      "pan": 5053,
      "trical": 5054,
      "Improving": 5055,
      "Sequence": 5056,
      "sophisticated": 5057,
      "pul": 5058,
      "ductive": 5059,
      "statistically": 5060,
      "2013": 5061,
      "formalism": 5062,
      "consumption": 5063,
      "Besides": 5064,
      "sometimes": 5065,
      "equilibri": 5066,
      "ADMM": 5067,
      "imagery": 5068,
      "Sch": 5069,
      "movi": 5070,
      "molec": 5071,
      "availability": 5072,
      "modification": 5073,
      "40": 5074,
      "KL": 5075,
      "Sentiment": 5076,
      "ange": 5077,
      "ested": 5078,
      "uration": 5079,
      "newly": 5080,
      "prefer": 5081,
      "Component": 5082,
      "weighting": 5083,
      "textit": 5084,
      "Global": 5085,
      "PASCAL": 5086,
      "Next": 5087,
      "mu": 5088,
      "met": 5089,
      "collect": 5090,
      "regularizer": 5091,
      "strict": 5092,
      "boxes": 5093,
      "Integr": 5094,
      "implications": 5095,
      "BF": 5096,
      "Its": 5097,
      "hol": 5098,
      "jection": 5099,
      "sibility": 5100,
      "labelled": 5101,
      "smoothing": 5102,
      "preserve": 5103,
      "historical": 5104,
      "ET": 5105,
      "inno": 5106,
      "logics": 5107,
      "exploring": 5108,
      "squared": 5109,
      "switch": 5110,
      "deli": 5111,
      "rams": 5112,
      "getting": 5113,
      "Enti": 5114,
      "observable": 5115,
      "adaptively": 5116,
      "repeated": 5117,
      "ners": 5118,
      "vertices": 5119,
      "format": 5120,
      "neighbors": 5121,
      "SVMs": 5122,
      "Event": 5123,
      "sites": 5124,
      "promo": 5125,
      "coherence": 5126,
      "Convex": 5127,
      "conditioned": 5128,
      "Descent": 5129,
      "surrogate": 5130,
      "cessive": 5131,
      "complement": 5132,
      "searching": 5133,
      "easier": 5134,
      "reveals": 5135,
      "bottlen": 5136,
      "messages": 5137,
      "Group": 5138,
      "Continuous": 5139,
      "lets": 5140,
      "notions": 5141,
      "analytical": 5142,
      "prevent": 5143,
      "expand": 5144,
      "hyperspectral": 5145,
      "Building": 5146,
      "tumor": 5147,
      "till": 5148,
      "seve": 5149,
      "coder": 5150,
      "consideration": 5151,
      "Metric": 5152,
      "assuming": 5153,
      "reports": 5154,
      "Factorization": 5155,
      "psycho": 5156,
      "thorough": 5157,
      "TV": 5158,
      "inside": 5159,
      "shallow": 5160,
      "otstr": 5161,
      "indeed": 5162,
      "evolving": 5163,
      "interpolation": 5164,
      "Shape": 5165,
      "Propagation": 5166,
      "had": 5167,
      "ito": 5168,
      "replace": 5169,
      "exceed": 5170,
      "vise": 5171,
      "decades": 5172,
      "globally": 5173,
      "aligned": 5174,
      "families": 5175,
      "exponentially": 5176,
      "dialog": 5177,
      "Embeddings": 5178,
      "Scene": 5179,
      "synaptic": 5180,
      "Internet": 5181,
      "replac": 5182,
      "NNs": 5183,
      "Level": 5184,
      "syntax": 5185,
      "transformed": 5186,
      "stimul": 5187,
      "feasibility": 5188,
      "movement": 5189,
      "atellite": 5190,
      "Up": 5191,
      "ball": 5192,
      "bank": 5193,
      "diff": 5194,
      "lip": 5195,
      "apped": 5196,
      "considerably": 5197,
      "merging": 5198,
      "introduction": 5199,
      "Fusion": 5200,
      "onomy": 5201,
      "spoken": 5202,
      "pedestrian": 5203,
      "95": 5204,
      "LO": 5205,
      "Sm": 5206,
      "elling": 5207,
      "singular": 5208,
      "files": 5209,
      "clean": 5210,
      "membership": 5211,
      "expansion": 5212,
      "Riemannian": 5213,
      "Ben": 5214,
      "CE": 5215,
      "noun": 5216,
      "compares": 5217,
      "viol": 5218,
      "highest": 5219,
      "Neighb": 5220,
      "interpreted": 5221,
      "Resolution": 5222,
      "Novel": 5223,
      "CCA": 5224,
      "Na": 5225,
      "US": 5226,
      "isson": 5227,
      "arms": 5228,
      "frequent": 5229,
      "abstraction": 5230,
      "spike": 5231,
      "Dense": 5232,
      "vast": 5233,
      "revision": 5234,
      "impres": 5235,
      "largest": 5236,
      "marking": 5237,
      "extending": 5238,
      "discovered": 5239,
      "smoothness": 5240,
      "specialized": 5241,
      "tags": 5242,
      "decrease": 5243,
      "Control": 5244,
      "deeper": 5245,
      "simplicity": 5246,
      "averaging": 5247,
      "}(": 5248,
      "rot": 5249,
      "verti": 5250,
      "divi": 5251,
      "ceptive": 5252,
      "obtains": 5253,
      "millions": 5254,
      "redundant": 5255,
      "mid": 5256,
      "ument": 5257,
      "usual": 5258,
      "radio": 5259,
      "disambigu": 5260,
      "ReLU": 5261,
      "autom": 5262,
      "operating": 5263,
      "Ent": 5264,
      "organization": 5265,
      "ensemb": 5266,
      "channels": 5267,
      "partitioning": 5268,
      "spiking": 5269,
      "Micro": 5270,
      "BN": 5271,
      "}\\": 5272,
      "consequence": 5273,
      "former": 5274,
      "later": 5275,
      "reasons": 5276,
      "gained": 5277,
      "reflec": 5278,
      "avi": 5279,
      "focusing": 5280,
      "formulas": 5281,
      "segmented": 5282,
      "mitig": 5283,
      "IM": 5284,
      "Lex": 5285,
      "SMT": 5286,
      "fting": 5287,
      "theless": 5288,
      "ewise": 5289,
      "reconstructed": 5290,
      "aimed": 5291,
      "selves": 5292,
      "Poisson": 5293,
      "voting": 5294,
      "remove": 5295,
      "summary": 5296,
      "Hidden": 5297,
      "TD": 5298,
      "faction": 5299,
      "rea": 5300,
      "oracle": 5301,
      "asc": 5302,
      "relate": 5303,
      "subsequent": 5304,
      "discrimination": 5305,
      "naive": 5306,
      "CPU": 5307,
      "Cal": 5308,
      "VAE": 5309,
      "inc": 5310,
      "colo": 5311,
      "sufficiently": 5312,
      "definitions": 5313,
      "scopic": 5314,
      "safe": 5315,
      "scans": 5316,
      "explanations": 5317,
      "Ve": 5318,
      "cope": 5319,
      "aps": 5320,
      "utes": 5321,
      "Neu": 5322,
      "encoun": 5323,
      "backpropagation": 5324,
      "scope": 5325,
      "corresponds": 5326,
      "Bound": 5327,
      "SVD": 5328,
      "discriminator": 5329,
      "predictor": 5330,
      "Adaptation": 5331,
      "outlier": 5332,
      "precisely": 5333,
      "Brain": 5334,
      "COCO": 5335,
      "inner": 5336,
      "allowed": 5337,
      "restoration": 5338,
      "projected": 5339,
      "implicitly": 5340,
      "Error": 5341,
      "Causal": 5342,
      "orphic": 5343,
      "mem": 5344,
      "duction": 5345,
      "Compo": 5346,
      "Interpre": 5347,
      "inferring": 5348,
      "tradeoff": 5349,
      "clearly": 5350,
      "conjunction": 5351,
      "EP": 5352,
      "VC": 5353,
      "ideal": 5354,
      "properly": 5355,
      "ell_1": 5356,
      "exploitation": 5357,
      "updated": 5358,
      "logarithmic": 5359,
      "phi": 5360,
      "team": 5361,
      "Comple": 5362,
      "limitation": 5363,
      "ResNet": 5364,
      "formulations": 5365,
      "Prior": 5366,
      "IL": 5367,
      "relying": 5368,
      "unconstrained": 5369,
      "popularity": 5370,
      "PSO": 5371,
      "ramid": 5372,
      "histogram": 5373,
      "tissue": 5374,
      "Dig": 5375,
      "ned": 5376,
      "enjo": 5377,
      "becoming": 5378,
      "bene": 5379,
      "MRF": 5380,
      "beliefs": 5381,
      "Computing": 5382,
      "diagnostic": 5383,
      "streaming": 5384,
      "Complexity": 5385,
      "rad": 5386,
      "thetic": 5387,
      "learners": 5388,
      "longer": 5389,
      "categorical": 5390,
      "quantitatively": 5391,
      "attracted": 5392,
      "Functions": 5393,
      "Comparison": 5394,
      "captioning": 5395,
      "Uncertainty": 5396,
      "GMM": 5397,
      "L1": 5398,
      "enfor": 5399,
      "chec": 5400,
      "monocular": 5401,
      "cry": 5402,
      "recommender": 5403,
      "specification": 5404,
      "SLAM": 5405,
      "exhibits": 5406,
      "records": 5407,
      "culation": 5408,
      "fold": 5409,
      "triple": 5410,
      "definite": 5411,
      "breast": 5412,
      "diseases": 5413,
      "choosing": 5414,
      "ano": 5415,
      "Decomposition": 5416,
      "identifies": 5417,
      "builds": 5418,
      "bottom": 5419,
      "business": 5420,
      "Distance": 5421,
      "Of": 5422,
      "recording": 5423,
      "profile": 5424,
      "learnt": 5425,
      "norms": 5426,
      "predictors": 5427,
      "degrees": 5428,
      "Mixture": 5429,
      "Google": 5430,
      "Ed": 5431,
      "isol": 5432,
      "izable": 5433,
      "recovering": 5434,
      "stored": 5435,
      "correspondences": 5436,
      "incorporated": 5437,
      "Region": 5438,
      "recommendations": 5439,
      "manipulation": 5440,
      "Facial": 5441,
      "}^": 5442,
      "stance": 5443,
      "ulner": 5444,
      "unlike": 5445,
      "vergence": 5446,
      "dial": 5447,
      "actually": 5448,
      "equip": 5449,
      "investigates": 5450,
      "discusses": 5451,
      "Explo": 5452,
      "anomal": 5453,
      "half": 5454,
      "Free": 5455,
      "cat": 5456,
      "mmetric": 5457,
      "want": 5458,
      "retriev": 5459,
      "ordered": 5460,
      "essentially": 5461,
      "integer": 5462,
      "express": 5463,
      "indicates": 5464,
      "Depth": 5465,
      "Policy": 5466,
      "PAC": 5467,
      "blind": 5468,
      "regime": 5469,
      "Concept": 5470,
      "studying": 5471,
      "clouds": 5472,
      "integrates": 5473,
      "follows": 5474,
      "Strate": 5475,
      "Simulation": 5476,
      "perceptron": 5477,
      "failure": 5478,
      "ambiguous": 5479,
      "DM": 5480,
      "Turing": 5481,
      "VQA": 5482,
      "infr": 5483,
      "once": 5484,
      "pool": 5485,
      "Third": 5486,
      "termin": 5487,
      "signature": 5488,
      "occlusions": 5489,
      "attractive": 5490,
      "Fully": 5491,
      "sers": 5492,
      "eness": 5493,
      "solves": 5494,
      "affine": 5495,
      "assigned": 5496,
      "homogeneous": 5497,
      "algebraic": 5498,
      "mentally": 5499,
      "parameterized": 5500,
      "sharp": 5501,
      "refinement": 5502,
      "OT": 5503,
      "Sent": 5504,
      "ending": 5505,
      "array": 5506,
      "Correlation": 5507,
      "illustrated": 5508,
      "mathbb": 5509,
      "beneficial": 5510,
      "AUC": 5511,
      "Equ": 5512,
      "PC": 5513,
      "unstructured": 5514,
      "approximating": 5515,
      "bring": 5516,
      "inferred": 5517,
      "Ber": 5518,
      "inv": 5519,
      "ato": 5520,
      "suff": 5521,
      "proposing": 5522,
      "Newton": 5523,
      "remarkable": 5524,
      "ASR": 5525,
      "Gs": 5526,
      "ians": 5527,
      "assis": 5528,
      "tomer": 5529,
      "deals": 5530,
      "consensus": 5531,
      "formed": 5532,
      "odic": 5533,
      "spect": 5534,
      "gray": 5535,
      "thresholding": 5536,
      "Order": 5537,
      "purely": 5538,
      "ratings": 5539,
      "Weighted": 5540,
      "24": 5541,
      "computes": 5542,
      "purposes": 5543,
      "blurring": 5544,
      "Rese": 5545,
      "mass": 5546,
      "metic": 5547,
      "mega": 5548,
      "exchange": 5549,
      "explores": 5550,
      "implementing": 5551,
      "discovering": 5552,
      "remaining": 5553,
      "Traditional": 5554,
      "Has": 5555,
      "LA": 5556,
      "RBM": 5557,
      "Simple": 5558,
      "aid": 5559,
      "happ": 5560,
      "rench": 5561,
      "phy": 5562,
      "costly": 5563,
      "translations": 5564,
      "landmarks": 5565,
      "student": 5566,
      "Path": 5567,
      "ancial": 5568,
      "ropic": 5569,
      "price": 5570,
      "approximated": 5571,
      "populations": 5572,
      "collections": 5573,
      "cumul": 5574,
      "intervals": 5575,
      "Demp": 5576,
      "curv": 5577,
      "multilingual": 5578,
      "giving": 5579,
      "Survey": 5580,
      "yielding": 5581,
      "Research": 5582,
      "Dempster": 5583,
      "Dro": 5584,
      "Ham": 5585,
      "SU": 5586,
      "onance": 5587,
      "implies": 5588,
      "moments": 5589,
      "delay": 5590,
      "iden": 5591,
      "heart": 5592,
      "biomedical": 5593,
      "Entity": 5594,
      "Gam": 5595,
      "arises": 5596,
      "tras": 5597,
      "trust": 5598,
      "conditioning": 5599,
      "Agent": 5600,
      "unctive": 5601,
      "industrial": 5602,
      "Diction": 5603,
      "PP": 5604,
      "cite": 5605,
      "slic": 5606,
      "uble": 5607,
      "aneous": 5608,
      "seed": 5609,
      "decade": 5610,
      "Improved": 5611,
      "Graphical": 5612,
      "Answer": 5613,
      "Field": 5614,
      "screening": 5615,
      "alleviate": 5616,
      "Entropy": 5617,
      "Even": 5618,
      "SAR": 5619,
      "holds": 5620,
      "mac": 5621,
      "scr": 5622,
      "wa": 5623,
      "indoor": 5624,
      "tization": 5625,
      "decl": 5626,
      "display": 5627,
      "beta": 5628,
      "interact": 5629,
      "critic": 5630,
      "heavi": 5631,
      "spatially": 5632,
      "gaze": 5633,
      "ambiguity": 5634,
      "systematically": 5635,
      "Big": 5636,
      "bor": 5637,
      "vulner": 5638,
      "Approximate": 5639,
      "adjac": 5640,
      "CU": 5641,
      "pancy": 5642,
      "obst": 5643,
      "overhead": 5644,
      "themselves": 5645,
      "mixtures": 5646,
      "asyn": 5647,
      "LSTMs": 5648,
      "feedforward": 5649,
      "removal": 5650,
      "asymptotically": 5651,
      "Shafer": 5652,
      "Def": 5653,
      "gover": 5654,
      "calculation": 5655,
      "parametr": 5656,
      "argumentation": 5657,
      "calculate": 5658,
      "recorded": 5659,
      "fingerprint": 5660,
      "Forest": 5661,
      "Pe": 5662,
      "thro": 5663,
      "ergy": 5664,
      "Ada": 5665,
      "Residual": 5666,
      "separable": 5667,
      "entric": 5668,
      "autoencoders": 5669,
      "EA": 5670,
      "Ha": 5671,
      "\\\"": 5672,
      "wild": 5673,
      "vessel": 5674,
      "2010": 5675,
      "98": 5676,
      "Bas": 5677,
      "itz": 5678,
      "trainable": 5679,
      "creation": 5680,
      "addressing": 5681,
      "tracker": 5682,
      "ranked": 5683,
      "biometric": 5684,
      "element": 5685,
      "skin": 5686,
      "hyperparameters": 5687,
      "emerged": 5688,
      "Regularization": 5689,
      "CSP": 5690,
      "Lay": 5691,
      "MLP": 5692,
      "child": 5693,
      "Tho": 5694,
      "compris": 5695,
      "dispar": 5696,
      "avy": 5697,
      "scat": 5698,
      "induction": 5699,
      "deployed": 5700,
      "summaries": 5701,
      "participants": 5702,
      "Value": 5703,
      "Ger": 5704,
      "TL": 5705,
      "ather": 5706,
      "iv": 5707,
      "exemp": 5708,
      "lood": 5709,
      "workers": 5710,
      "mong": 5711,
      "environmental": 5712,
      "necessarily": 5713,
      "Principal": 5714,
      "''": 5715,
      "French": 5716,
      "GS": 5717,
      "OS": 5718,
      "``": 5719,
      "fused": 5720,
      "ubi": 5721,
      "revis": 5722,
      "idance": 5723,
      "included": 5724,
      "heavily": 5725,
      "Among": 5726,
      "mim": 5727,
      "otic": 5728,
      "anatom": 5729,
      "Recomm": 5730,
      "instanti": 5731,
      "frac": 5732,
      "affected": 5733,
      "surprisingly": 5734,
      "Aug": 5735,
      "Wasser": 5736,
      "never": 5737,
      "sole": 5738,
      "computers": 5739,
      "Indian": 5740,
      "ensembles": 5741,
      "97": 5742,
      "tw": 5743,
      "Consequently": 5744,
      "Expres": 5745,
      "names": 5746,
      "minima": 5747,
      "bridge": 5748,
      "Predicting": 5749,
      "Quality": 5750,
      "During": 5751,
      "KB": 5752,
      "LF": 5753,
      "swarm": 5754,
      "inking": 5755,
      "arly": 5756,
      "percent": 5757,
      "dily": 5758,
      "developments": 5759,
      "versus": 5760,
      "accelerated": 5761,
      "favorably": 5762,
      "commercial": 5763,
      "Discovery": 5764,
      "hundreds": 5765,
      "Aware": 5766,
      "VS": 5767,
      "idel": 5768,
      "bootstr": 5769,
      "reality": 5770,
      "importantly": 5771,
      "Loss": 5772,
      "avoiding": 5773,
      "redundancy": 5774,
      "slightly": 5775,
      "Wasserstein": 5776,
      "cup": 5777,
      "enter": 5778,
      "exclu": 5779,
      "quasi": 5780,
      "sequentially": 5781,
      "Ensemble": 5782,
      "cardi": 5783,
      "bottleneck": 5784,
      "BLE": 5785,
      "Squ": 5786,
      "arts": 5787,
      "compil": 5788,
      "Examp": 5789,
      "Detecting": 5790,
      "IE": 5791,
      "RC": 5792,
      "satellite": 5793,
      "isot": 5794,
      "percei": 5795,
      "haus": 5796,
      "posit": 5797,
      "2011": 5798,
      "appears": 5799,
      "reliably": 5800,
      "motivation": 5801,
      "accelerate": 5802,
      "piecewise": 5803,
      "Mob": 5804,
      "TA": 5805,
      "mits": 5806,
      "leg": 5807,
      "econom": 5808,
      "conject": 5809,
      "compressive": 5810,
      "standar": 5811,
      "heavy": 5812,
      "thentic": 5813,
      "Imaging": 5814,
      "verified": 5815,
      "Subspace": 5816,
      "intuition": 5817,
      "simplified": 5818,
      "Gabor": 5819,
      "held": 5820,
      "tition": 5821,
      "analyse": 5822,
      "hibi": 5823,
      "cycl": 5824,
      "Code": 5825,
      "Align": 5826,
      "transforms": 5827,
      "avoids": 5828,
      "skills": 5829,
      "GD": 5830,
      "tized": 5831,
      "toward": 5832,
      "factory": 5833,
      "Environ": 5834,
      "validity": 5835,
      "contras": 5836,
      "angular": 5837,
      "dramatically": 5838,
      "skip": 5839,
      "cascade": 5840,
      "judg": 5841,
      "nuclear": 5842,
      "Cod": 5843,
      "instr": 5844,
      "roles": 5845,
      "today": 5846,
      "vec": 5847,
      "ticlass": 5848,
      "textures": 5849,
      "personalized": 5850,
      "Approximation": 5851,
      "mathbf": 5852,
      "Camer": 5853,
      "HS": 5854,
      "eg": 5855,
      "ilo": 5856,
      "actical": 5857,
      "deb": 5858,
      "compens": 5859,
      "aded": 5860,
      "adapting": 5861,
      "customer": 5862,
      "Firstly": 5863,
      "perturbation": 5864,
      "http": 5865,
      "ICA": 5866,
      "Mor": 5867,
      "Sci": 5868,
      "umb": 5869,
      "concrete": 5870,
      "abs": 5871,
      "hout": 5872,
      "mesh": 5873,
      "extracts": 5874,
      "supporting": 5875,
      "revealed": 5876,
      "agnostic": 5877,
      "DC": 5878,
      "Dual": 5879,
      "Medical": 5880,
      "fig": 5881,
      "reless": 5882,
      "umes": 5883,
      "biases": 5884,
      "Computation": 5885,
      "collective": 5886,
      "grows": 5887,
      "inducing": 5888,
      "qualitatively": 5889,
      "execut": 5890,
      "temporally": 5891,
      "ubiqu": 5892,
      ")-": 5893,
      "70": 5894,
      "Ori": 5895,
      "fed": 5896,
      "doing": 5897,
      "serv": 5898,
      "travel": 5899,
      "selects": 5900,
      "Description": 5901,
      "turns": 5902,
      "Scalable": 5903,
      "crowdsourcing": 5904,
      "deployment": 5905,
      "trends": 5906,
      "asynchronous": 5907,
      "DAR": 5908,
      "Hes": 5909,
      "ply": 5910,
      "truc": 5911,
      "until": 5912,
      "possibil": 5913,
      "Parsing": 5914,
      "Constrained": 5915,
      "inherently": 5916,
      "concerns": 5917,
      "strengths": 5918,
      "impressive": 5919,
      "BLEU": 5920,
      "trace": 5921,
      "ughout": 5922,
      "preced": 5923,
      "cripts": 5924,
      "OCR": 5925,
      "ConvNets": 5926,
      "Techniques": 5927,
      "Digital": 5928,
      "FO": 5929,
      "RP": 5930,
      "Tran": 5931,
      "Vo": 5932,
      "replic": 5933,
      "differ": 5934,
      "logs": 5935,
      "Annot": 5936,
      "encodes": 5937,
      "Multimodal": 5938,
      "Poly": 5939,
      ")$,": 5940,
      "aggregate": 5941,
      "suffers": 5942,
      "script": 5943,
      "lea": 5944,
      "areto": 5945,
      "intended": 5946,
      "lie": 5947,
      "matched": 5948,
      "Fields": 5949,
      "examined": 5950,
      "Ste": 5951,
      "ingual": 5952,
      "analytics": 5953,
      "constructs": 5954,
      "asive": 5955,
      "inductive": 5956,
      "Secondly": 5957,
      "Sequential": 5958,
      "conversation": 5959,
      "Combining": 5960,
      "compatible": 5961,
      "ED": 5962,
      "LI": 5963,
      "VGG": 5964,
      "WL": 5965,
      "hys": 5966,
      "Deter": 5967,
      "entralized": 5968,
      "Interest": 5969,
      "industry": 5970,
      "landscape": 5971,
      "itous": 5972,
      "Pareto": 5973,
      "ww": 5974,
      "motor": 5975,
      "formally": 5976,
      "contents": 5977,
      "financial": 5978,
      "highligh": 5979,
      "meanings": 5980,
      "playing": 5981,
      "drift": 5982,
      "removing": 5983,
      "Color": 5984,
      "overlap": 5985,
      "default": 5986,
      "Incre": 5987,
      "antly": 5988,
      "guidance": 5989,
      "statements": 5990,
      "dedic": 5991,
      "assumes": 5992,
      "released": 5993,
      "contained": 5994,
      "selective": 5995,
      "SIFT": 5996,
      "evolve": 5997,
      "Import": 5998,
      "poorly": 5999,
      "looking": 6000,
      "Oper": 6001,
      "Ran": 6002,
      "Rep": 6003,
      "ales": 6004,
      "romorphic": 6005,
      "foot": 6006,
      "flows": 6007,
      "qualities": 6008,
      "progressive": 6009,
      "grammars": 6010,
      "absence": 6011,
      "Sali": 6012,
      "trig": 6013,
      "dies": 6014,
      "composite": 6015,
      "frequencies": 6016,
      "voir": 6017,
      "arbitrarily": 6018,
      "Measure": 6019,
      "electronic": 6020,
      "Dictionary": 6021,
      "Categor": 6022,
      "Med": 6023,
      "WS": 6024,
      "atics": 6025,
      "lig": 6026,
      "exhaus": 6027,
      "posing": 6028,
      "white": 6029,
      "cipl": 6030,
      "successive": 6031,
      "grouping": 6032,
      "treated": 6033,
      "primarily": 6034,
      "encouraging": 6035,
      "splitting": 6036,
      "CB": 6037,
      "os": 6038,
      "ologies": 6039,
      "root": 6040,
      "acces": 6041,
      "possess": 6042,
      "spread": 6043,
      "sover": 6044,
      "opposed": 6045,
      "Exper": 6046,
      "outperformed": 6047,
      "coordinates": 6048,
      "spatiotemporal": 6049,
      "modifications": 6050,
      "routing": 6051,
      "Classifier": 6052,
      "Accurate": 6053,
      "curvature": 6054,
      "OF": 6055,
      "Wave": 6056,
      "emb": 6057,
      "lates": 6058,
      "enced": 6059,
      "icine": 6060,
      "chem": 6061,
      "discipl": 6062,
      "amin": 6063,
      "acyclic": 6064,
      "ocentric": 6065,
      "pliers": 6066,
      "Datab": 6067,
      "Localization": 6068,
      "Agg": 6069,
      "Filtering": 6070,
      "students": 6071,
      "Solving": 6072,
      "equilibrium": 6073,
      "Hessian": 6074,
      "2vec": 6075,
      "Parti": 6076,
      "termed": 6077,
      "clip": 6078,
      "mini": 6079,
      "Produc": 6080,
      "minimizes": 6081,
      "quantities": 6082,
      "emergence": 6083,
      "daily": 6084,
      "mitted": 6085,
      "walk": 6086,
      "TR": 6087,
      "sli": 6088,
      "spir": 6089,
      "hop": 6090,
      "bidirectional": 6091,
      "layout": 6092,
      "scar": 6093,
      "behavioral": 6094,
      "gamma": 6095,
      "Constraints": 6096,
      "World": 6097,
      "Grammar": 6098,
      "innov": 6099,
      "dedicated": 6100,
      "DCNN": 6101,
      "toler": 6102,
      "promin": 6103,
      "spher": 6104,
      "mail": 6105,
      "quantity": 6106,
      "transitions": 6107,
      "satisfactory": 6108,
      "restrictions": 6109,
      "sensory": 6110,
      "2007": 6111,
      "circum": 6112,
      "readily": 6113,
      "HT": 6114,
      "Particle": 6115,
      "emotions": 6116,
      "thon": 6117,
      "arising": 6118,
      "begin": 6119,
      "disj": 6120,
      "novelty": 6121,
      "automata": 6122,
      "Altern": 6123,
      "Discrete": 6124,
      "Chain": 6125,
      "biology": 6126,
      "recognized": 6127,
      "seek": 6128,
      "supported": 6129,
      "Commun": 6130,
      "Discriminative": 6131,
      "Cr": 6132,
      "GE": 6133,
      "educ": 6134,
      "metrical": 6135,
      "hope": 6136,
      "Feed": 6137,
      "elect": 6138,
      "satisfaction": 6139,
      "acquire": 6140,
      "uniformly": 6141,
      "Manif": 6142,
      "Normal": 6143,
      "front": 6144,
      "Bench": 6145,
      "75": 6146,
      "Cur": 6147,
      "Faster": 6148,
      "vanish": 6149,
      "aten": 6150,
      "optimally": 6151,
      "species": 6152,
      "intersection": 6153,
      "speak": 6154,
      "maximal": 6155,
      "Filter": 6156,
      "Norm": 6157,
      "German": 6158,
      "FA": 6159,
      "Fol": 6160,
      "lem": 6161,
      "delity": 6162,
      "equally": 6163,
      "discriminant": 6164,
      "associations": 6165,
      "Attribut": 6166,
      "sistent": 6167,
      "surrounding": 6168,
      "opinions": 6169,
      "constitu": 6170,
      "keeping": 6171,
      "deviation": 6172,
      "96": 6173,
      "Ps": 6174,
      "enrich": 6175,
      "spectives": 6176,
      "Conn": 6177,
      "backward": 6178,
      "defines": 6179,
      "Spi": 6180,
      "eleg": 6181,
      "neighbour": 6182,
      "satisfies": 6183,
      "counterparts": 6184,
      "concerned": 6185,
      "refined": 6186,
      "Iterative": 6187,
      "cryp": 6188,
      "chemical": 6189,
      "L2": 6190,
      "Lip": 6191,
      "lung": 6192,
      "receptive": 6193,
      "acade": 6194,
      "check": 6195,
      "sures": 6196,
      "fiable": 6197,
      "omial": 6198,
      "significance": 6199,
      "integral": 6200,
      "ridge": 6201,
      "tune": 6202,
      "proofs": 6203,
      "fairness": 6204,
      "Ontology": 6205,
      "23": 6206,
      "26": 6207,
      "Tes": 6208,
      "User": 6209,
      "Yet": 6210,
      "deformation": 6211,
      "ultim": 6212,
      "vertex": 6213,
      "Three": 6214,
      "Weak": 6215,
      "plant": 6216,
      "teness": 6217,
      "cycle": 6218,
      "shelf": 6219,
      "Tool": 6220,
      "volumes": 6221,
      "Box": 6222,
      "partitions": 6223,
      "specify": 6224,
      "movements": 6225,
      "drastic": 6226,
      "Minimization": 6227,
      "macro": 6228,
      "scratch": 6229,
      "Omega": 6230,
      "Ref": 6231,
      "TP": 6232,
      "arc": 6233,
      "devise": 6234,
      "cli": 6235,
      "presenting": 6236,
      "Consi": 6237,
      "matics": 6238,
      "Energy": 6239,
      "surfaces": 6240,
      "deriving": 6241,
      "teacher": 6242,
      "solely": 6243,
      "conjecture": 6244,
      "ilored": 6245,
      "Tur": 6246,
      "atus": 6247,
      "utation": 6248,
      "adic": 6249,
      "guidel": 6250,
      "grasp": 6251,
      "authentic": 6252,
      "graphics": 6253,
      "otherwise": 6254,
      "styles": 6255,
      "fails": 6256,
      "Architecture": 6257,
      "85": 6258,
      "Lag": 6259,
      "MD": 6260,
      "ptim": 6261,
      "vents": 6262,
      "compet": 6263,
      "elic": 6264,
      "tailored": 6265,
      "Coun": 6266,
      "store": 6267,
      "geneity": 6268,
      "occurs": 6269,
      "acceleration": 6270,
      "episte": 6271,
      "atoms": 6272,
      "AF": 6273,
      "Kal": 6274,
      "fMRI": 6275,
      "lis": 6276,
      "raph": 6277,
      "boptim": 6278,
      "fidelity": 6279,
      "predefined": 6280,
      "shed": 6281,
      "synchron": 6282,
      "schitz": 6283,
      "affinity": 6284,
      "Corpus": 6285,
      "emotional": 6286,
      "resolve": 6287,
      "circuits": 6288,
      "decide": 6289,
      "entailment": 6290,
      "adequate": 6291,
      "hours": 6292,
      "ubiquitous": 6293,
      "Ranking": 6294,
      "RT": 6295,
      "_0": 6296,
      "ons": 6297,
      "nealing": 6298,
      "claim": 6299,
      "localized": 6300,
      "lattice": 6301,
      "softmax": 6302,
      "Videos": 6303,
      "symbols": 6304,
      "Series": 6305,
      "conflict": 6306,
      "94": 6307,
      "mild": 6308,
      "pon": 6309,
      "stro": 6310,
      "undirected": 6311,
      "unbiased": 6312,
      "regul": 6313,
      "potentials": 6314,
      "Noise": 6315,
      "Struct": 6316,
      "explained": 6317,
      "Boosting": 6318,
      "Dimensional": 6319,
      "Exploiting": 6320,
      "throughout": 6321,
      "($": 6322,
      "Crowd": 6323,
      "NER": 6324,
      "Zero": 6325,
      "_i": 6326,
      "entang": 6327,
      "union": 6328,
      "abnormal": 6329,
      "analytic": 6330,
      "subsequently": 6331,
      "regarded": 6332,
      "Mobile": 6333,
      "$)": 6334,
      "La": 6335,
      "ends": 6336,
      "secu": 6337,
      "string": 6338,
      "Means": 6339,
      "phases": 6340,
      "seems": 6341,
      "microscopy": 6342,
      "Reduction": 6343,
      "identical": 6344,
      "Rule": 6345,
      "hed": 6346,
      "profiles": 6347,
      "prohibi": 6348,
      "impossible": 6349,
      "Adv": 6350,
      "limiting": 6351,
      "practition": 6352,
      "alog": 6353,
      "informatics": 6354,
      "POS": 6355,
      "conversational": 6356,
      "utterances": 6357,
      "demo": 6358,
      "cooperative": 6359,
      "weather": 6360,
      "cha": 6361,
      "suboptim": 6362,
      "Instance": 6363,
      "designs": 6364,
      "synthesized": 6365,
      "thought": 6366,
      "drawbacks": 6367,
      "movie": 6368,
      "divided": 6369,
      "declar": 6370,
      "isotropic": 6371,
      "Del": 6372,
      "RS": 6373,
      "Star": 6374,
      "dam": 6375,
      "That": 6376,
      "adverti": 6377,
      "options": 6378,
      "amese": 6379,
      "cortex": 6380,
      "logists": 6381,
      "ularity": 6382,
      "forests": 6383,
      "release": 6384,
      "Restric": 6385,
      "concaten": 6386,
      "ConvNet": 6387,
      "protocols": 6388,
      "axioms": 6389,
      "colour": 6390,
      "Vehic": 6391,
      "Mapping": 6392,
      "You": 6393,
      "kers": 6394,
      "ingly": 6395,
      "roid": 6396,
      "tomography": 6397,
      "vival": 6398,
      "genes": 6399,
      "prone": 6400,
      "convexity": 6401,
      "foundation": 6402,
      "continuously": 6403,
      ")$.": 6404,
      "bandits": 6405,
      "penalized": 6406,
      "Relations": 6407,
      "GPUs": 6408,
      "disambiguation": 6409,
      "checking": 6410,
      "88": 6411,
      "Fine": 6412,
      "billion": 6413,
      "flo": 6414,
      "conv": 6415,
      "consequences": 6416,
      "delta": 6417,
      "mented": 6418,
      "methodologies": 6419,
      "Nearest": 6420,
      "lick": 6421,
      "fract": 6422,
      "weakness": 6423,
      "Predictive": 6424,
      "materials": 6425,
      "dominant": 6426,
      "package": 6427,
      "Document": 6428,
      "stimuli": 6429,
      "Shot": 6430,
      "nested": 6431,
      "isk": 6432,
      "accounts": 6433,
      "Though": 6434,
      "recti": 6435,
      "Optical": 6436,
      "helpful": 6437,
      "Activity": 6438,
      "cellular": 6439,
      "primal": 6440,
      "placement": 6441,
      "MSE": 6442,
      "Behavi": 6443,
      "Block": 6444,
      "inferences": 6445,
      "retri": 6446,
      "story": 6447,
      "consecu": 6448,
      "abund": 6449,
      "irrelevant": 6450,
      "Compreh": 6451,
      "Semantics": 6452,
      "segmenting": 6453,
      "conclusions": 6454,
      "linked": 6455,
      "Expect": 6456,
      "decreases": 6457,
      "columns": 6458,
      "severe": 6459,
      "retrieve": 6460,
      "++": 6461,
      "32": 6462,
      "flat": 6463,
      "ification": 6464,
      "covari": 6465,
      "course": 6466,
      "computable": 6467,
      "pread": 6468,
      "shr": 6469,
      "localize": 6470,
      "asymmetric": 6471,
      "partite": 6472,
      "biologically": 6473,
      "correctness": 6474,
      "trend": 6475,
      "Parameter": 6476,
      "Aggreg": 6477,
      "Case": 6478,
      "Pen": 6479,
      "lu": 6480,
      "sine": 6481,
      "tach": 6482,
      "permutation": 6483,
      "matter": 6484,
      "median": 6485,
      "ordinary": 6486,
      "stronger": 6487,
      "Quantum": 6488,
      "Content": 6489,
      "Collabor": 6490,
      "discrepancy": 6491,
      "degradation": 6492,
      "Geometric": 6493,
      "proportional": 6494,
      "Neighbor": 6495,
      "Coding": 6496,
      "metries": 6497,
      "perspectives": 6498,
      "rendering": 6499,
      "completeness": 6500,
      "astro": 6501,
      "observing": 6502,
      "Compression": 6503,
      "characterizing": 6504,
      "interests": 6505,
      "bandwidth": 6506,
      "organized": 6507,
      "Synthesis": 6508,
      "Deno": 6509,
      "multiplicative": 6510,
      "concentration": 6511,
      "CH": 6512,
      "Cy": 6513,
      "Pair": 6514,
      "pages": 6515,
      "accum": 6516,
      "ativity": 6517,
      "serious": 6518,
      "Develop": 6519,
      "suppres": 6520,
      "App": 6521,
      "satisfying": 6522,
      "Imple": 6523,
      "Sensing": 6524,
      "briefly": 6525,
      "molecular": 6526,
      "Hashing": 6527,
      "cumulative": 6528,
      ");": 6529,
      "El": 6530,
      "sable": 6531,
      "accep": 6532,
      "imes": 6533,
      "Inverse": 6534,
      "trains": 6535,
      "going": 6536,
      "simulator": 6537,
      "offs": 6538,
      "According": 6539,
      "Universal": 6540,
      "Maximization": 6541,
      "derivatives": 6542,
      "customers": 6543,
      "returns": 6544,
      "tensors": 6545,
      "Follow": 6546,
      "LV": 6547,
      "Risk": 6548,
      "Swarm": 6549,
      "TE": 6550,
      "aes": 6551,
      "isto": 6552,
      "ticip": 6553,
      "detections": 6554,
      "Finding": 6555,
      "grounded": 6556,
      "Argu": 6557,
      "convolutions": 6558,
      "HMMs": 6559,
      "$(": 6560,
      "Bre": 6561,
      "Bey": 6562,
      "OP": 6563,
      "blood": 6564,
      "lasso": 6565,
      "oks": 6566,
      "aring": 6567,
      "assemb": 6568,
      "tored": 6569,
      "acles": 6570,
      "covers": 6571,
      "trunc": 6572,
      "strings": 6573,
      "dest": 6574,
      "aphr": 6575,
      "specially": 6576,
      "interacting": 6577,
      "realized": 6578,
      "targeted": 6579,
      "ultural": 6580,
      "appealing": 6581,
      "shortest": 6582,
      "Relational": 6583,
      "Beyond": 6584,
      ".)": 6585,
      "Black": 6586,
      "Spo": 6587,
      "Trees": 6588,
      "multidimensional": 6589,
      "multilayer": 6590,
      "analytically": 6591,
      "detects": 6592,
      "locate": 6593,
      "operates": 6594,
      "food": 6595,
      "digit": 6596,
      "preserves": 6597,
      "Robot": 6598,
      "2009": 6599,
      "morph": 6600,
      "Expectation": 6601,
      "Not": 6602,
      "ease": 6603,
      "manage": 6604,
      "double": 6605,
      "grade": 6606,
      "versary": 6607,
      "simulate": 6608,
      "Encoder": 6609,
      "gesture": 6610,
      "projects": 6611,
      "interpretations": 6612,
      "WordNet": 6613,
      "derivation": 6614,
      "encountered": 6615,
      "trasound": 6616,
      "Lipschitz": 6617,
      "Structural": 6618,
      "VI": 6619,
      "job": 6620,
      "lds": 6621,
      "lists": 6622,
      "ube": 6623,
      "imbalanced": 6624,
      "verbs": 6625,
      "outside": 6626,
      "commod": 6627,
      "Convergence": 6628,
      "located": 6629,
      "Associ": 6630,
      "medium": 6631,
      "evolved": 6632,
      "facilitates": 6633,
      "Mixed": 6634,
      "Regularized": 6635,
      "Neuro": 6636,
      "Restricted": 6637,
      "Assess": 6638,
      "PD": 6639,
      "Pho": 6640,
      "Source": 6641,
      "fts": 6642,
      "fri": 6643,
      "gic": 6644,
      "kit": 6645,
      "astruc": 6646,
      "parse": 6647,
      "regressive": 6648,
      "asticity": 6649,
      "closer": 6650,
      "101": 6651,
      "occurring": 6652,
      "analogy": 6653,
      "Identifying": 6654,
      "prominent": 6655,
      "92": 6656,
      "Hor": 6657,
      "Meta": 6658,
      "mach": 6659,
      "vable": 6660,
      "rences": 6661,
      "dissimilarity": 6662,
      "trial": 6663,
      "engines": 6664,
      "trackers": 6665,
      "Power": 6666,
      "assessing": 6667,
      "chains": 6668,
      "counterpart": 6669,
      "crossover": 6670,
      "Alex": 6671,
      "ROC": 6672,
      "tables": 6673,
      "ues": 6674,
      "ufact": 6675,
      "roll": 6676,
      "exc": 6677,
      "claus": 6678,
      "densities": 6679,
      "CAD": 6680,
      "Bounds": 6681,
      "initi": 6682,
      "gery": 6683,
      "Query": 6684,
      "sigma": 6685,
      "malware": 6686,
      "translated": 6687,
      "multiclass": 6688,
      "Abstr": 6689,
      "Effective": 6690,
      "consecutive": 6691,
      "Cell": 6692,
      "GM": 6693,
      "Game": 6694,
      "uth": 6695,
      "acc": 6696,
      "templates": 6697,
      "paired": 6698,
      "collap": 6699,
      "POMDPs": 6700,
      "encourage": 6701,
      "Exploration": 6702,
      "suboptimal": 6703,
      "Collaborative": 6704,
      "Bet": 6705,
      "lan": 6706,
      "mapped": 6707,
      "reproducing": 6708,
      "did": 6709,
      "plus": 6710,
      "places": 6711,
      "temper": 6712,
      "visualize": 6713,
      "medicine": 6714,
      "robustly": 6715,
      "brings": 6716,
      "synthesize": 6717,
      "expressi": 6718,
      "observational": 6719,
      "photos": 6720,
      "drop": 6721,
      "lesions": 6722,
      "reservoir": 6723,
      "mimic": 6724,
      "cardiac": 6725,
      "Examples": 6726,
      "guidelines": 6727,
      "FS": 6728,
      "Jap": 6729,
      "Test": 6730,
      "vidu": 6731,
      "occup": 6732,
      "Sem": 6733,
      "Experiment": 6734,
      "quantification": 6735,
      "rows": 6736,
      "establishing": 6737,
      "angles": 6738,
      "proximity": 6739,
      "burden": 6740,
      "opportunities": 6741,
      "epistemic": 6742,
      "BI": 6743,
      "Loc": 6744,
      "Mech": 6745,
      "Pear": 6746,
      "RK": 6747,
      "RDF": 6748,
      "Sig": 6749,
      "Tar": 6750,
      "sec": 6751,
      "compan": 6752,
      "irror": 6753,
      "distill": 6754,
      "optima": 6755,
      "grammatical": 6756,
      "Generating": 6757,
      "demonstration": 6758,
      "retinal": 6759,
      "hyperparameter": 6760,
      "affects": 6761,
      "Organ": 6762,
      "stitution": 6763,
      "circuit": 6764,
      "ignore": 6765,
      "rarely": 6766,
      "Indeed": 6767,
      "Alignment": 6768,
      "Denoising": 6769,
      "Japan": 6770,
      "Mechan": 6771,
      "500": 6772,
      "84": 6773,
      "KIT": 6774,
      "Tri": 6775,
      "eth": 6776,
      "uments": 6777,
      "deconvolution": 6778,
      "ury": 6779,
      "hoc": 6780,
      "multiscale": 6781,
      "optimizes": 6782,
      "uple": 6783,
      "Stack": 6784,
      "ordinal": 6785,
      "determines": 6786,
      "diagrams": 6787,
      "Making": 6788,
      "suggesting": 6789,
      "gather": 6790,
      "summarize": 6791,
      "comprehension": 6792,
      "Density": 6793,
      "stacked": 6794,
      "acceptable": 6795,
      "vanishing": 6796,
      "87": 6797,
      "Cut": 6798,
      "Io": 6799,
      "Last": 6800,
      "OWL": 6801,
      "aerial": 6802,
      "page": 6803,
      "})": 6804,
      "ars": 6805,
      "adays": 6806,
      "stered": 6807,
      "decay": 6808,
      "determination": 6809,
      "pyramid": 6810,
      "Acceler": 6811,
      "satisfiability": 6812,
      "mappings": 6813,
      "magnetic": 6814,
      "morphology": 6815,
      "Overall": 6816,
      "Bandits": 6817,
      "Product": 6818,
      "93": 6819,
      "AU": 6820,
      "LD": 6821,
      "NT": 6822,
      "Prec": 6823,
      "UAV": 6824,
      "cognition": 6825,
      "ulating": 6826,
      "sians": 6827,
      "teams": 6828,
      "mind": 6829,
      "minor": 6830,
      "recovered": 6831,
      "Never": 6832,
      "aiming": 6833,
      "individu": 6834,
      "preferred": 6835,
      "-$": 6836,
      "22": 6837,
      "Pas": 6838,
      "Sche": 6839,
      "Tag": 6840,
      "seam": 6841,
      "poli": 6842,
      "worse": 6843,
      "verb": 6844,
      "adversary": 6845,
      "mam": 6846,
      "server": 6847,
      "particles": 6848,
      "commit": 6849,
      "operational": 6850,
      "Robo": 6851,
      "controlling": 6852,
      "^{-": 6853,
      "Intelligent": 6854,
      "anomalies": 6855,
      "speakers": 6856,
      "Hindi": 6857,
      "Histo": 6858,
      "Mag": 6859,
      "QN": 6860,
      "fly": 6861,
      "tise": 6862,
      "proceed": 6863,
      "house": 6864,
      "Ini": 6865,
      "entirely": 6866,
      "she": 6867,
      "Cognitive": 6868,
      "phones": 6869,
      "planar": 6870,
      "neighboring": 6871,
      "Variable": 6872,
      "calibrated": 6873,
      "binar": 6874,
      "Guided": 6875,
      "Summar": 6876,
      "tokens": 6877,
      "Oriented": 6878,
      "Kalman": 6879,
      "Autonomous": 6880,
      "Rev": 6881,
      "bad": 6882,
      "gold": 6883,
      "none": 6884,
      "inality": 6885,
      "isy": 6886,
      "resonance": 6887,
      "tends": 6888,
      "serves": 6889,
      "versati": 6890,
      "Separ": 6891,
      "posts": 6892,
      "Engine": 6893,
      "Direction": 6894,
      "translate": 6895,
      "Common": 6896,
      "enabled": 6897,
      "pieces": 6898,
      "Classifiers": 6899,
      "Camera": 6900,
      "accessible": 6901,
      "KITTI": 6902,
      "65": 6903,
      "duration": 6904,
      "instruc": 6905,
      "edit": 6906,
      "status": 6907,
      "wered": 6908,
      "click": 6909,
      "comings": 6910,
      "subtle": 6911,
      "incrementally": 6912,
      "UCB": 6913,
      "Words": 6914,
      "coupling": 6915,
      "routine": 6916,
      "originally": 6917,
      "ricul": 6918,
      "spanning": 6919,
      "strictly": 6920,
      "Completion": 6921,
      "declarative": 6922,
      "Nevertheless": 6923,
      "Eval": 6924,
      "Rules": 6925,
      "sus": 6926,
      "vit": 6927,
      "proves": 6928,
      "meet": 6929,
      "mpson": 6930,
      "rays": 6931,
      "interfaces": 6932,
      "Conf": 6933,
      "complexities": 6934,
      "succeed": 6935,
      "shortcomings": 6936,
      "alignments": 6937,
      "concerning": 6938,
      "belonging": 6939,
      "accomplish": 6940,
      "Driven": 6941,
      "transportation": 6942,
      "fragments": 6943,
      "Light": 6944,
      "LBP": 6945,
      "away": 6946,
      "wides": 6947,
      "xy": 6948,
      "incur": 6949,
      "ern": 6950,
      "pros": 6951,
      "sizing": 6952,
      "outline": 6953,
      "parameterization": 6954,
      "throughput": 6955,
      "tilde": 6956,
      "enhancing": 6957,
      "occurrences": 6958,
      "bands": 6959,
      "occluded": 6960,
      "record": 6961,
      "multim": 6962,
      "intervention": 6963,
      "Dialo": 6964,
      "equipped": 6965,
      "infrastruc": 6966,
      "Thompson": 6967,
      "86": 6968,
      "Sets": 6969,
      "aided": 6970,
      "moti": 6971,
      "worth": 6972,
      "adow": 6973,
      "sympto": 6974,
      "Proper": 6975,
      "decid": 6976,
      "Stand": 6977,
      "freely": 6978,
      "assignments": 6979,
      "exhaustive": 6980,
      "practitioners": 6981,
      "21": 6982,
      "Casc": 6983,
      "ressing": 6984,
      "trim": 6985,
      "ferential": 6986,
      "thanks": 6987,
      "actively": 6988,
      "numerically": 6989,
      "cars": 6990,
      "indices": 6991,
      "Texture": 6992,
      "paradigms": 6993,
      "conjug": 6994,
      "polarity": 6995,
      "vulnerable": 6996,
      "clauses": 6997,
      "83": 6998,
      "89": 6999,
      "Pixel": 7000,
      "dous": 7001,
      "fier": 7002,
      "nony": 7003,
      "generality": 7004,
      "centers": 7005,
      "planner": 7006,
      "reconstructing": 7007,
      "Noisy": 7008,
      "Extended": 7009,
      "Probability": 7010,
      "breaking": 7011,
      "saving": 7012,
      "Sentence": 7013,
      "Ano": 7014,
      "Mis": 7015,
      "Si": 7016,
      "reposit": 7017,
      "stem": 7018,
      "cortical": 7019,
      "idefinite": 7020,
      "Improve": 7021,
      "hierarchies": 7022,
      "digits": 7023,
      "elementary": 7024,
      "Target": 7025,
      "individually": 7026,
      "widespread": 7027,
      "Elec": 7028,
      "Hard": 7029,
      "vital": 7030,
      "inpainting": 7031,
      "attach": 7032,
      "worlds": 7033,
      "multitask": 7034,
      "nonnegative": 7035,
      "Least": 7036,
      "changed": 7037,
      "decentralized": 7038,
      "respond": 7039,
      "relatedness": 7040,
      "reconstructions": 7041,
      "bilingual": 7042,
      "driver": 7043,
      "founded": 7044,
      "Estimating": 7045,
      "aggregated": 7046,
      "careful": 7047,
      "favorable": 7048,
      "multimedia": 7049,
      "NS": 7050,
      "wel": 7051,
      "losoph": 7052,
      "neither": 7053,
      "sphere": 7054,
      "uck": 7055,
      "Convolution": 7056,
      "layered": 7057,
      "signatures": 7058,
      "factual": 7059,
      "tracks": 7060,
      "Various": 7061,
      "Objects": 7062,
      "analogous": 7063,
      "electro": 7064,
      "BS": 7065,
      "DI": 7066,
      "Fr": 7067,
      "PDE": 7068,
      "Ret": 7069,
      "Solution": 7070,
      "camp": 7071,
      "learnable": 7072,
      "genom": 7073,
      "recast": 7074,
      "preval": 7075,
      "creates": 7076,
      "handled": 7077,
      "keywords": 7078,
      "explor": 7079,
      "indicating": 7080,
      "voice": 7081,
      "richer": 7082,
      "Interactive": 7083,
      "explaining": 7084,
      "neutral": 7085,
      "proportion": 7086,
      "mitigate": 7087,
      "academic": 7088,
      "Photo": 7089,
      "45": 7090,
      "Cri": 7091,
      "GI": 7092,
      "Lim": 7093,
      "Nam": 7094,
      "Wal": 7095,
      "pes": 7096,
      "intru": 7097,
      "anticip": 7098,
      "forgetting": 7099,
      "irregular": 7100,
      "manufact": 7101,
      "thermal": 7102,
      "Competi": 7103,
      "Allocation": 7104,
      "additionally": 7105,
      "Within": 7106,
      "assessed": 7107,
      "calculating": 7108,
      "segmentations": 7109,
      "}$.": 7110,
      "passes": 7111,
      "scientists": 7112,
      "temporary": 7113,
      "holistic": 7114,
      "physi": 7115,
      "Benchmark": 7116,
      "Japanese": 7117,
      "Another": 7118,
      "BR": 7119,
      "Ga": 7120,
      "induce": 7121,
      "ale": 7122,
      "orts": 7123,
      "relates": 7124,
      "Contextual": 7125,
      "peak": 7126,
      "2000": 7127,
      "Modelling": 7128,
      "Unit": 7129,
      "Gaussians": 7130,
      "linking": 7131,
      "causality": 7132,
      "collecting": 7133,
      "neuromorphic": 7134,
      "reached": 7135,
      "seamless": 7136,
      "Jac": 7137,
      "Ling": 7138,
      "Link": 7139,
      "Sensor": 7140,
      "eight": 7141,
      "pu": 7142,
      "devo": 7143,
      "Their": 7144,
      "implements": 7145,
      "labelling": 7146,
      "distant": 7147,
      "DAG": 7148,
      "Without": 7149,
      "satisfied": 7150,
      "indexing": 7151,
      "decompositions": 7152,
      "Sample": 7153,
      "Differential": 7154,
      "electric": 7155,
      "anatomical": 7156,
      "temperature": 7157,
      "ELM": 7158,
      "ju": 7159,
      "uistic": 7160,
      "inher": 7161,
      "seven": 7162,
      "cel": 7163,
      "home": 7164,
      "clustered": 7165,
      "Partial": 7166,
      "decompose": 7167,
      "taxonomy": 7168,
      "neuroscience": 7169,
      "wireless": 7170,
      "triplet": 7171,
      "AdaBoost": 7172,
      "Recommend": 7173,
      "Database": 7174,
      "drastically": 7175,
      "',": 7176,
      "PL": 7177,
      "sw": 7178,
      "sat": 7179,
      "uti": 7180,
      "leep": 7181,
      "clim": 7182,
      "Invariant": 7183,
      "option": 7184,
      "Coordin": 7185,
      "goes": 7186,
      "faced": 7187,
      "sciences": 7188,
      "formalize": 7189,
      "refers": 7190,
      "gradually": 7191,
      "Relation": 7192,
      "Dynamics": 7193,
      "University": 7194,
      "demands": 7195,
      "derivative": 7196,
      "Dev": 7197,
      "Frequ": 7198,
      "Mus": 7199,
      "Media": 7200,
      "Sty": 7201,
      "TF": 7202,
      "TO": 7203,
      "ake": 7204,
      "ahead": 7205,
      "fits": 7206,
      "ined": 7207,
      "enumer": 7208,
      "geno": 7209,
      "ident": 7210,
      "relating": 7211,
      "Extre": 7212,
      "folio": 7213,
      "negation": 7214,
      "formalisms": 7215,
      "decreasing": 7216,
      "Priv": 7217,
      "wider": 7218,
      "emphasis": 7219,
      "recordings": 7220,
      "Games": 7221,
      "cycles": 7222,
      "egocentric": 7223,
      "Following": 7224,
      "Batch": 7225,
      "Oc": 7226,
      "QL": 7227,
      "dinal": 7228,
      "encomp": 7229,
      "deblurring": 7230,
      "abet": 7231,
      "beam": 7232,
      "obvious": 7233,
      "spection": 7234,
      "viewpoints": 7235,
      "theorems": 7236,
      "survival": 7237,
      "convenient": 7238,
      "pipelines": 7239,
      "distortions": 7240,
      "replacing": 7241,
      "disparity": 7242,
      "35": 7243,
      "Dise": 7244,
      "FL": 7245,
      "Rate": 7246,
      "Vol": 7247,
      "aur": 7248,
      "inconsistent": 7249,
      "ats": 7250,
      "fered": 7251,
      "inequality": 7252,
      "paraphr": 7253,
      "outdoor": 7254,
      "Contr": 7255,
      "portion": 7256,
      "facing": 7257,
      "stopping": 7258,
      "convert": 7259,
      "assigning": 7260,
      "scanning": 7261,
      "Agents": 7262,
      "regardless": 7263,
      "Signal": 7264,
      "Layer": 7265,
      "Dialogue": 7266,
      "($\\": 7267,
      "82": 7268,
      "native": 7269,
      "ensur": 7270,
      "ession": 7271,
      "coded": 7272,
      "impose": 7273,
      "imbalance": 7274,
      "immun": 7275,
      "elastic": 7276,
      "correc": 7277,
      "specificity": 7278,
      "associative": 7279,
      "adoption": 7280,
      "Management": 7281,
      "\\%$": 7282,
      "atomic": 7283,
      "switching": 7284,
      "RKHS": 7285,
      "64": 7286,
      "Met": 7287,
      "Phys": 7288,
      "RR": 7289,
      "VR": 7290,
      "bone": 7291,
      "sest": 7292,
      "inomial": 7293,
      "encing": 7294,
      "itting": 7295,
      "divide": 7296,
      "inefficient": 7297,
      "multipliers": 7298,
      "recovers": 7299,
      "transmission": 7300,
      "gian": 7301,
      "ctor": 7302,
      "missions": 7303,
      "stock": 7304,
      "balancing": 7305,
      "quantified": 7306,
      "Chan": 7307,
      "parallelism": 7308,
      "preserved": 7309,
      "distinc": 7310,
      "relaxed": 7311,
      "volumetric": 7312,
      "concave": 7313,
      "Spatio": 7314,
      "Maps": 7315,
      "Index": 7316,
      "differs": 7317,
      "judgments": 7318,
      ",\\": 7319,
      "91": 7320,
      "itives": 7321,
      "threat": 7322,
      "ensures": 7323,
      "leaf": 7324,
      "acri": 7325,
      "moj": 7326,
      "expo": 7327,
      "unclear": 7328,
      "shor": 7329,
      "Selec": 7330,
      "traditionally": 7331,
      "connect": 7332,
      "initially": 7333,
      "Recovery": 7334,
      "GPs": 7335,
      "diagram": 7336,
      "Percep": 7337,
      "eliminate": 7338,
      "ANNs": 7339,
      "cardinality": 7340,
      "Enhance": 7341,
      "Weakly": 7342,
      "%)": 7343,
      "Kin": 7344,
      "eco": 7345,
      "traces": 7346,
      "Independent": 7347,
      "ples": 7348,
      "generalizing": 7349,
      "sampler": 7350,
      "handles": 7351,
      "maximizes": 7352,
      "geometrical": 7353,
      "sky": 7354,
      "Nonlinear": 7355,
      "explains": 7356,
      "POMDP": 7357,
      "Euro": 7358,
      "periodic": 7359,
      "provable": 7360,
      "Python": 7361,
      "Dropout": 7362,
      "adjacent": 7363,
      "govern": 7364,
      "cub": 7365,
      "tab": 7366,
      "org": 7367,
      "endo": 7368,
      "enforce": 7369,
      "gences": 7370,
      "doub": 7371,
      "live": 7372,
      "Review": 7373,
      "practically": 7374,
      "schema": 7375,
      "seconds": 7376,
      "controls": 7377,
      "centric": 7378,
      "Sparsity": 7379,
      "Interaction": 7380,
      "eigenvectors": 7381,
      "contours": 7382,
      "Accuracy": 7383,
      "comprises": 7384,
      "GL": 7385,
      "Off": 7386,
      "PA": 7387,
      "Pur": 7388,
      "bid": 7389,
      "cred": 7390,
      "ometry": 7391,
      "inversion": 7392,
      "invent": 7393,
      "stabil": 7394,
      "ourn": 7395,
      "minal": 7396,
      "Conven": 7397,
      "synchronous": 7398,
      "misclassification": 7399,
      "scious": 7400,
      "Languages": 7401,
      "Diagno": 7402,
      "mathematically": 7403,
      "maintains": 7404,
      "metadata": 7405,
      "pheno": 7406,
      "deformable": 7407,
      "exemplar": 7408,
      "authentication": 7409,
      "76": 7410,
      "Cre": 7411,
      "Che": 7412,
      "FD": 7413,
      "PI": 7414,
      "Satis": 7415,
      "Vir": 7416,
      "bar": 7417,
      "dle": 7418,
      "gical": 7419,
      "editing": 7420,
      "spon": 7421,
      "disjoint": 7422,
      "spectra": 7423,
      "shadow": 7424,
      "marked": 7425,
      "approximates": 7426,
      "discriminate": 7427,
      "expertise": 7428,
      "transferred": 7429,
      "mendous": 7430,
      "arithmetic": 7431,
      "placed": 7432,
      "Objective": 7433,
      "enjoys": 7434,
      "Edge": 7435,
      "perceived": 7436,
      "highlights": 7437,
      "):": 7438,
      "Breg": 7439,
      "Gen": 7440,
      "PE": 7441,
      "annealing": 7442,
      "copy": 7443,
      "imposed": 7444,
      "convey": 7445,
      "cris": 7446,
      "traits": 7447,
      "latency": 7448,
      "conversion": 7449,
      "transforming": 7450,
      "indicator": 7451,
      "Descrip": 7452,
      "informed": 7453,
      "API": 7454,
      "MOS": 7455,
      "simplify": 7456,
      "Reduc": 7457,
      "Theoretical": 7458,
      "deformations": 7459,
      "Bandit": 7460,
      "odesic": 7461,
      "granularity": 7462,
      "replaced": 7463,
      "children": 7464,
      "Interestingly": 7465,
      "AlexNet": 7466,
      "Perceptron": 7467,
      "Bregman": 7468,
      "Anom": 7469,
      "Bang": 7470,
      "Evid": 7471,
      "VL": 7472,
      "touch": 7473,
      "stances": 7474,
      "traction": 7475,
      "books": 7476,
      "resulted": 7477,
      "reci": 7478,
      "liver": 7479,
      "scalar": 7480,
      "resolutions": 7481,
      "transferring": 7482,
      "agged": 7483,
      "CTC": 7484,
      "communicate": 7485,
      "Nonparametric": 7486,
      "reflection": 7487,
      "days": 7488,
      "Implic": 7489,
      "Health": 7490,
      "assisted": 7491,
      "progressively": 7492,
      "Manifold": 7493,
      "Summarization": 7494,
      "zon": 7495,
      "insufficient": 7496,
      "ests": 7497,
      "room": 7498,
      "icians": 7499,
      "moves": 7500,
      "lots": 7501,
      "unity": 7502,
      "pers": 7503,
      "agraph": 7504,
      "below": 7505,
      "parsers": 7506,
      "fire": 7507,
      "Cost": 7508,
      "heat": 7509,
      "merits": 7510,
      "descriptive": 7511,
      "tremendous": 7512,
      "experimentation": 7513,
      "appropriately": 7514,
      "MIL": 7515,
      "libraries": 7516,
      "cascaded": 7517,
      "Patterns": 7518,
      "Stream": 7519,
      "philosoph": 7520,
      "spectro": 7521,
      "Incremental": 7522,
      "DNA": 7523,
      "GAs": 7524,
      "Pop": 7525,
      "gle": 7526,
      "tors": 7527,
      "inconsistency": 7528,
      "infeasible": 7529,
      "ultrasound": 7530,
      "chi": 7531,
      "chrom": 7532,
      "uttered": 7533,
      "host": 7534,
      "cities": 7535,
      "tigh": 7536,
      "counted": 7537,
      "utilization": 7538,
      "persons": 7539,
      "diagonal": 7540,
      "fake": 7541,
      "organizing": 7542,
      "News": 7543,
      "branches": 7544,
      "Dependency": 7545,
      "Lexical": 7546,
      "lemma": 7547,
      "\")": 7548,
      "Emotion": 7549,
      "kine": 7550,
      "rising": 7551,
      "zer": 7552,
      "thed": 7553,
      "mour": 7554,
      "confo": 7555,
      "Influ": 7556,
      "inequalities": 7557,
      "impr": 7558,
      "ught": 7559,
      "Topo": 7560,
      "captions": 7561,
      "Programs": 7562,
      "ultaneous": 7563,
      "treating": 7564,
      "intention": 7565,
      "conclusion": 7566,
      "concise": 7567,
      "retaining": 7568,
      "percentage": 7569,
      "economic": 7570,
      "possibilities": 7571,
      "scarce": 7572,
      "Ama": 7573,
      "Da": 7574,
      "HE": 7575,
      "RBF": 7576,
      "Wol": 7577,
      "fuse": 7578,
      "ye": 7579,
      "reject": 7580,
      "ley": 7581,
      "moun": 7582,
      "tenance": 7583,
      "develops": 7584,
      "viewing": 7585,
      "similarly": 7586,
      "sourced": 7587,
      "demonstrations": 7588,
      "secondary": 7589,
      "Recogn": 7590,
      "bioinformatics": 7591,
      "gestures": 7592,
      "faith": 7593,
      "linguistics": 7594,
      "}$,": 7595,
      "reaching": 7596,
      "relaxations": 7597,
      "passive": 7598,
      "phoneme": 7599,
      "conversations": 7600,
      "transparent": 7601,
      "Comparing": 7602,
      "spot": 7603,
      "Type": 7604,
      "Handwritten": 7605,
      "Software": 7606,
      "slice": 7607,
      "scattering": 7608,
      "77": 7609,
      "aver": 7610,
      "mm": 7611,
      "ination": 7612,
      "suite": 7613,
      "problematic": 7614,
      "varies": 7615,
      "trials": 7616,
      "tele": 7617,
      "prints": 7618,
      "inclusion": 7619,
      "centered": 7620,
      "regularity": 7621,
      "keypoints": 7622,
      "hardness": 7623,
      "opens": 7624,
      "Simultaneous": 7625,
      "styl": 7626,
      "aggregating": 7627,
      "primitives": 7628,
      "lengths": 7629,
      "Currently": 7630,
      "narrow": 7631,
      "Communic": 7632,
      "covariates": 7633,
      "shrink": 7634,
      "political": 7635,
      "conjugate": 7636,
      "Siamese": 7637,
      "SB": 7638,
      "bing": 7639,
      "cin": 7640,
      "gates": 7641,
      "rm": 7642,
      "zy": 7643,
      "rever": 7644,
      "unable": 7645,
      "poch": 7646,
      "ache": 7647,
      "claims": 7648,
      "plug": 7649,
      "rative": 7650,
      "iris": 7651,
      "tedious": 7652,
      "whenever": 7653,
      "statistic": 7654,
      "Observ": 7655,
      "querying": 7656,
      "PSNR": 7657,
      "experiences": 7658,
      "confirmed": 7659,
      "Generalization": 7660,
      "synapses": 7661,
      "SOM": 7662,
      "deliver": 7663,
      "JP": 7664,
      "Other": 7665,
      "ae": 7666,
      "sacri": 7667,
      "attributed": 7668,
      "ulli": 7669,
      "contemporary": 7670,
      "ectors": 7671,
      "generators": 7672,
      "functionality": 7673,
      "subsu": 7674,
      "searches": 7675,
      "Leib": 7676,
      "grounding": 7677,
      "bipartite": 7678,
      "cue": 7679,
      "clothing": 7680,
      "Symbol": 7681,
      "Regis": 7682,
      "controllers": 7683,
      "broader": 7684,
      "ABC": 7685,
      "Naive": 7686,
      "bootstrap": 7687,
      "Determin": 7688,
      "Saliency": 7689,
      "Wavelet": 7690,
      "riculum": 7691,
      "sacrific": 7692,
      "Bag": 7693,
      "EE": 7694,
      "Kull": 7695,
      "Pi": 7696,
      "lity": 7697,
      "ny": 7698,
      "rist": 7699,
      "esion": 7700,
      "roids": 7701,
      "resamp": 7702,
      "plain": 7703,
      "firstly": 7704,
      "colors": 7705,
      "responsible": 7706,
      "merge": 7707,
      "Formal": 7708,
      "Recur": 7709,
      "neuronal": 7710,
      "SSC": 7711,
      "engineered": 7712,
      "seeks": 7713,
      "Direct": 7714,
      "UCF": 7715,
      "ateral": 7716,
      "penalties": 7717,
      "elimination": 7718,
      "windows": 7719,
      "Scen": 7720,
      "Controll": 7721,
      "masks": 7722,
      "Cloud": 7723,
      "GRU": 7724,
      "Augmented": 7725,
      "standardi": 7726,
      "chaotic": 7727,
      "weaknesses": 7728,
      "infrastructure": 7729,
      "BC": 7730,
      "Cho": 7731,
      "Der": 7732,
      "EL": 7733,
      "Mal": 7734,
      "Rus": 7735,
      "Rad": 7736,
      "XML": 7737,
      "epoch": 7738,
      "reuse": 7739,
      "enor": 7740,
      "icing": 7741,
      "prof": 7742,
      "posi": 7743,
      "permits": 7744,
      "utro": 7745,
      "ilton": 7746,
      "clutter": 7747,
      "ellip": 7748,
      "maker": 7749,
      "processor": 7750,
      "plex": 7751,
      "markers": 7752,
      "signs": 7753,
      "Imag": 7754,
      "latest": 7755,
      "afford": 7756,
      "filtered": 7757,
      "warping": 7758,
      "SSD": 7759,
      "Functional": 7760,
      "starts": 7761,
      "monitor": 7762,
      "teaching": 7763,
      "promote": 7764,
      "obstacle": 7765,
      "spherical": 7766,
      "disjunctive": 7767,
      "))": 7768,
      "74": 7769,
      "MV": 7770,
      "Phas": 7771,
      "Win": 7772,
      "lap": 7773,
      "arable": 7774,
      "cosine": 7775,
      "noulli": 7776,
      "elabor": 7777,
      "transcription": 7778,
      "evaluates": 7779,
      "apparent": 7780,
      "roughly": 7781,
      "STDP": 7782,
      "semidefinite": 7783,
      "Resource": 7784,
      "continuity": 7785,
      "believ": 7786,
      "Autoencoders": 7787,
      "GPS": 7788,
      "pursuit": 7789,
      "calls": 7790,
      "coordination": 7791,
      "drawing": 7792,
      "Heur": 7793,
      "monotone": 7794,
      "contributes": 7795,
      "constitute": 7796,
      "radial": 7797,
      "FPGA": 7798,
      "Smart": 7799,
      "enjoy": 7800,
      "Bernoulli": 7801,
      "Hamilton": 7802,
      "fractal": 7803,
      "devoted": 7804,
      "Leibler": 7805,
      "Kullback": 7806,
      "DW": 7807,
      "Flick": 7808,
      "Sa": 7809,
      "Ts": 7810,
      "Tube": 7811,
      "Use": 7812,
      "aut": 7813,
      "roo": 7814,
      "develo": 7815,
      "cooperation": 7816,
      "synony": 7817,
      "dot": 7818,
      "venue": 7819,
      "strategic": 7820,
      "ava": 7821,
      "keypoint": 7822,
      "ultinomial": 7823,
      "Respon": 7824,
      "separated": 7825,
      "indicators": 7826,
      "Quad": 7827,
      "Where": 7828,
      "MIT": 7829,
      "receives": 7830,
      "decomposed": 7831,
      "CRFs": 7832,
      "belongs": 7833,
      "revisit": 7834,
      "sliding": 7835,
      "HSI": 7836,
      "ru": 7837,
      "thered": 7838,
      "forming": 7839,
      "month": 7840,
      "Remo": 7841,
      "cyclic": 7842,
      "Pos": 7843,
      "Autoencoder": 7844,
      "uncertainties": 7845,
      "failures": 7846,
      "olingual": 7847,
      "reedom": 7848,
      "1000": 7849,
      "distinction": 7850,
      "exceeds": 7851,
      "Strategy": 7852,
      "elegant": 7853,
      "Turk": 7854,
      "Lagran": 7855,
      "Applying": 7856,
      "Assessment": 7857,
      "friend": 7858,
      "companies": 7859,
      "puzz": 7860,
      "Kinect": 7861,
      "Preliminary": 7862,
      "SDP": 7863,
      "wish": 7864,
      "}{": 7865,
      "iner": 7866,
      "dele": 7867,
      "sell": 7868,
      "mel": 7869,
      "consequently": 7870,
      "utor": 7871,
      "presentation": 7872,
      "variances": 7873,
      "heim": 7874,
      "Form": 7875,
      "afore": 7876,
      "investigating": 7877,
      "annotate": 7878,
      "Grass": 7879,
      "rankings": 7880,
      "gait": 7881,
      "reaches": 7882,
      "Unified": 7883,
      "Meanwhile": 7884,
      "harmon": 7885,
      "thoroughly": 7886,
      "Testing": 7887,
      "Vehicle": 7888,
      "Named": 7889,
      "Disease": 7890,
      "ensuring": 7891,
      "Bangla": 7892,
      "Flickr": 7893,
      "Lagrangian": 7894,
      "Best": 7895,
      "Ny": 7896,
      "Partic": 7897,
      "Ur": 7898,
      "Val": 7899,
      "null": 7900,
      "ora": 7901,
      "ingre": 7902,
      "spam": 7903,
      "Inception": 7904,
      "ado": 7905,
      "dose": 7906,
      "Encoding": 7907,
      "closure": 7908,
      "interpreting": 7909,
      "trying": 7910,
      "enhances": 7911,
      "Mathe": 7912,
      "2008": 7913,
      "translating": 7914,
      "adjustment": 7915,
      "ROI": 7916,
      "harder": 7917,
      "sembles": 7918,
      "ignored": 7919,
      "animals": 7920,
      "retrieved": 7921,
      "Morpho": 7922,
      "truncated": 7923,
      "Standard": 7924,
      "Amazon": 7925,
      "aforementioned": 7926,
      "33": 7927,
      "81": 7928,
      "MAR": 7929,
      "Pres": 7930,
      "TH": 7931,
      "email": 7932,
      "lated": 7933,
      "oid": 7934,
      "weaker": 7935,
      "Theta": 7936,
      "stri": 7937,
      "adverse": 7938,
      "plasticity": 7939,
      "manus": 7940,
      "disentang": 7941,
      "comments": 7942,
      "scaled": 7943,
      "unifying": 7944,
      "connecting": 7945,
      "successes": 7946,
      "moothed": 7947,
      "abstractions": 7948,
      "aggregates": 7949,
      "primitive": 7950,
      "emerge": 7951,
      "gathered": 7952,
      "motivate": 7953,
      "motivates": 7954,
      "craft": 7955,
      "Traffic": 7956,
      "encourages": 7957,
      "justification": 7958,
      "Calcul": 7959,
      "distinctive": 7960,
      "27": 7961,
      "78": 7962,
      "Dice": 7963,
      "Evol": 7964,
      "FR": 7965,
      "Te": 7966,
      "Wild": 7967,
      "gri": 7968,
      "haps": 7969,
      "oing": 7970,
      "incorrect": 7971,
      "apol": 7972,
      "depic": 7973,
      "surgical": 7974,
      "converted": 7975,
      "compound": 7976,
      "Spanish": 7977,
      "formulating": 7978,
      "letter": 7979,
      "preservation": 7980,
      "seem": 7981,
      "downstream": 7982,
      "divergences": 7983,
      "distinguishing": 7984,
      "heterogeneity": 7985,
      "healthy": 7986,
      "Minimum": 7987,
      "utterance": 7988,
      "International": 7989,
      "Discriminant": 7990,
      "Quantit": 7991,
      "filling": 7992,
      "exclusive": 7993,
      "Stereo": 7994,
      "51": 7995,
      "Ear": 7996,
      "OCT": 7997,
      "Preser": 7998,
      "SW": 7999,
      "alph": 8000,
      "ards": 8001,
      "lev": 8002,
      "leave": 8003,
      "acing": 8004,
      "aced": 8005,
      "meter": 8006,
      "contamin": 8007,
      "knowing": 8008,
      "adapts": 8009,
      "stop": 8010,
      "Spaces": 8011,
      "Finite": 8012,
      "Atari": 8013,
      "MTL": 8014,
      "influences": 8015,
      "tractability": 8016,
      "collision": 8017,
      "Diffusion": 8018,
      "berg": 8019,
      "Exploring": 8020,
      "Output": 8021,
      "momentum": 8022,
      "Style": 8023,
      "positives": 8024,
      "Phase": 8025,
      "City": 8026,
      "Cali": 8027,
      "Eigen": 8028,
      "Frank": 8029,
      "thread": 8030,
      "genous": 8031,
      "classifications": 8032,
      "representational": 8033,
      "Toward": 8034,
      "locality": 8035,
      "minimized": 8036,
      "picture": 8037,
      "specifications": 8038,
      "forecast": 8039,
      "regularizers": 8040,
      "write": 8041,
      "restriction": 8042,
      "mutations": 8043,
      "piece": 8044,
      "tweet": 8045,
      "HOG": 8046,
      "reflects": 8047,
      "Implementation": 8048,
      "accepted": 8049,
      "utrosoph": 8050,
      "Land": 8051,
      "van": 8052,
      "inver": 8053,
      "tible": 8054,
      "icious": 8055,
      "urn": 8056,
      "usable": 8057,
      "wee": 8058,
      "tential": 8059,
      "notably": 8060,
      "gues": 8061,
      "actors": 8062,
      "ongoing": 8063,
      "seness": 8064,
      "hands": 8065,
      "benchmarking": 8066,
      "expressing": 8067,
      "accordingly": 8068,
      "photometric": 8069,
      "Kernels": 8070,
      "entry": 8071,
      "healthcare": 8072,
      "joints": 8073,
      "Modern": 8074,
      "screen": 8075,
      "Hyperspectral": 8076,
      "pathology": 8077,
      "landscapes": 8078,
      "psychological": 8079,
      "automation": 8080,
      "radar": 8081,
      "Attribute": 8082,
      "aesthetic": 8083,
      "Extreme": 8084,
      "Enhancement": 8085,
      "utrosophic": 8086,
      "EAs": 8087,
      "bf": 8088,
      "crow": 8089,
      "mmetry": 8090,
      "zheim": 8091,
      "invariants": 8092,
      "reverse": 8093,
      "tioning": 8094,
      "arrange": 8095,
      "ico": 8096,
      "cores": 8097,
      "sification": 8098,
      "cons": 8099,
      "conscious": 8100,
      "perplex": 8101,
      "vian": 8102,
      "hosp": 8103,
      "ured": 8104,
      "ader": 8105,
      "timing": 8106,
      "varied": 8107,
      "overcomes": 8108,
      "Alzheim": 8109,
      "planes": 8110,
      "Once": 8111,
      "supple": 8112,
      "Stan": 8113,
      "quantifying": 8114,
      "quantized": 8115,
      "SVRG": 8116,
      "MAB": 8117,
      "retin": 8118,
      "cheap": 8119,
      "Rather": 8120,
      "Sketch": 8121,
      "exposure": 8122,
      "JPEG": 8123,
      "(\"": 8124,
      "Cha": 8125,
      "Finger": 8126,
      "Ul": 8127,
      "ral": 8128,
      "ark": 8129,
      "prote": 8130,
      "minutes": 8131,
      "Convers": 8132,
      "Exact": 8133,
      "trick": 8134,
      "solid": 8135,
      "hyth": 8136,
      "portfolio": 8137,
      "typing": 8138,
      "thresholds": 8139,
      "hinge": 8140,
      "neighborhoods": 8141,
      "Measures": 8142,
      "multiplication": 8143,
      "Small": 8144,
      "exploratory": 8145,
      "Europe": 8146,
      "Conventional": 8147,
      "DN": 8148,
      "IV": 8149,
      "MN": 8150,
      "Nash": 8151,
      "PT": 8152,
      "PET": 8153,
      "eu": 8154,
      "freedom": 8155,
      "theta": 8156,
      "route": 8157,
      "protect": 8158,
      "memor": 8159,
      "chap": 8160,
      "modelled": 8161,
      "uctu": 8162,
      "regimes": 8163,
      "nonmonotonic": 8164,
      "considerations": 8165,
      "planners": 8166,
      "Track": 8167,
      "Assu": 8168,
      "SSO": 8169,
      "encodings": 8170,
      "Likelihood": 8171,
      "infty": 8172,
      "recursively": 8173,
      "interventions": 8174,
      "Sched": 8175,
      "molecules": 8176,
      "Squares": 8177,
      "Considering": 8178,
      "BA": 8179,
      "fusing": 8180,
      "mAP": 8181,
      "psilon": 8182,
      "rho": 8183,
      "}{\\": 8184,
      "inspection": 8185,
      "thin": 8186,
      "itative": 8187,
      "Thresh": 8188,
      "sports": 8189,
      "sistency": 8190,
      "velocity": 8191,
      "probable": 8192,
      "Neg": 8193,
      "mismatch": 8194,
      "reductions": 8195,
      "Margin": 8196,
      "removed": 8197,
      "centralized": 8198,
      "progression": 8199,
      "positional": 8200,
      "Like": 8201,
      "modularity": 8202,
      "compatibility": 8203,
      "Annotation": 8204,
      "Expert": 8205,
      "Feedback": 8206,
      "SemEval": 8207,
      "36": 8208,
      "HN": 8209,
      "IB": 8210,
      "Patch": 8211,
      "don": 8212,
      "gre": 8213,
      "uff": 8214,
      "arness": 8215,
      "cluttered": 8216,
      "imprec": 8217,
      "highlighting": 8218,
      "processors": 8219,
      "rought": 8220,
      "locating": 8221,
      "offering": 8222,
      "fluctu": 8223,
      "SPD": 8224,
      "speeds": 8225,
      "establishes": 8226,
      "boosted": 8227,
      "shifts": 8228,
      "Evaluating": 8229,
      "isolated": 8230,
      "invasive": 8231,
      "Expression": 8232,
      "Lastly": 8233,
      "Recommendation": 8234,
      "FIS": 8235,
      "Hop": 8236,
      "MB": 8237,
      "Shi": 8238,
      "bro": 8239,
      "tile": 8240,
      "anch": 8241,
      "era": 8242,
      "imposing": 8243,
      "adversari": 8244,
      "geodesic": 8245,
      "interference": 8246,
      "handwriting": 8247,
      "glomer": 8248,
      "Change": 8249,
      "drive": 8250,
      "neglig": 8251,
      "Approaches": 8252,
      "RGBD": 8253,
      "moderate": 8254,
      "member": 8255,
      "Comparative": 8256,
      "Theorem": 8257,
      "Architectures": 8258,
      "opportunity": 8259,
      "psychology": 8260,
      "enforcing": 8261,
      "LFW": 8262,
      "damage": 8263,
      "instructions": 8264,
      "encompas": 8265,
      "Anomaly": 8266,
      "profession": 8267,
      "friendly": 8268,
      "Sense": 8269,
      "smo": 8270,
      "scripts": 8271,
      "inaccurate": 8272,
      "leq": 8273,
      "forces": 8274,
      "chess": 8275,
      "regres": 8276,
      "regress": 8277,
      "differently": 8278,
      "subgraph": 8279,
      "architectural": 8280,
      "annotators": 8281,
      "bilinear": 8282,
      "fficiency": 8283,
      "lacking": 8284,
      "male": 8285,
      "marginals": 8286,
      "Cancer": 8287,
      "Background": 8288,
      "modifying": 8289,
      "Alzheimer": 8290,
      "28": 8291,
      "Fs": 8292,
      "GO": 8293,
      "Pa": 8294,
      "RAN": 8295,
      "Smooth": 8296,
      "WE": 8297,
      "Wide": 8298,
      "fon": 8299,
      "indirect": 8300,
      "accommod": 8301,
      "unreliable": 8302,
      "grounds": 8303,
      "observer": 8304,
      "classifies": 8305,
      "handcrafted": 8306,
      "forecas": 8307,
      "addle": 8308,
      "calculations": 8309,
      "Now": 8310,
      "Diag": 8311,
      "mathematics": 8312,
      "augmenting": 8313,
      "eliminating": 8314,
      "repeatedly": 8315,
      "obstacles": 8316,
      "YouTube": 8317,
      "Comprehensive": 8318,
      "impractical": 8319,
      "Registration": 8320,
      "300": 8321,
      "Dr": 8322,
      "Greedy": 8323,
      "gated": 8324,
      "rhyth": 8325,
      "sleep": 8326,
      "reproduc": 8327,
      "coali": 8328,
      "verbal": 8329,
      "spur": 8330,
      "monolingual": 8331,
      "pretrained": 8332,
      "maintenance": 8333,
      "ignoring": 8334,
      "Projection": 8335,
      "society": 8336,
      "predictable": 8337,
      "Strong": 8338,
      "gaining": 8339,
      "eventually": 8340,
      "Surprising": 8341,
      "phonetic": 8342,
      "binding": 8343,
      "Microsoft": 8344,
      "vessels": 8345,
      "executed": 8346,
      "motif": 8347,
      "Russian": 8348,
      "Quantitative": 8349,
      "perplexity": 8350,
      "negligible": 8351,
      "DCNNs": 8352,
      "ILP": 8353,
      "IRL": 8354,
      "Port": 8355,
      "SH": 8356,
      "TM": 8357,
      "cit": 8358,
      "cultural": 8359,
      "erc": 8360,
      "devised": 8361,
      "comprising": 8362,
      "viable": 8363,
      "clari": 8364,
      "fiers": 8365,
      "multispectral": 8366,
      "realize": 8367,
      "prono": 8368,
      "generalizations": 8369,
      "senses": 8370,
      "Ant": 8371,
      "identities": 8372,
      "supply": 8373,
      "posteriori": 8374,
      "everyday": 8375,
      "expectations": 8376,
      "cuts": 8377,
      "join": 8378,
      "Bidirectional": 8379,
      "dominated": 8380,
      "constitutes": 8381,
      "resolved": 8382,
      "discretization": 8383,
      "lexicons": 8384,
      "Dependent": 8385,
      "Technique": 8386,
      "Environments": 8387,
      "innovative": 8388,
      "Spiking": 8389,
      "Pearl": 8390,
      "Competition": 8391,
      "Diagnosis": 8392,
      "Virtual": 8393,
      "enormous": 8394,
      "Hamiltonian": 8395,
      "Har": 8396,
      "Play": 8397,
      "Rade": 8398,
      "TSP": 8399,
      "Zip": 8400,
      "_p": 8401,
      "hat": 8402,
      "junction": 8403,
      "sha": 8404,
      "imitation": 8405,
      "menting": 8406,
      "paragraph": 8407,
      "amenable": 8408,
      "corner": 8409,
      "corrected": 8410,
      "analyzes": 8411,
      "Relev": 8412,
      "Leveraging": 8413,
      "pher": 8414,
      "gets": 8415,
      "univariate": 8416,
      "bright": 8417,
      "wrong": 8418,
      "decoupl": 8419,
      "necessity": 8420,
      "mutually": 8421,
      "Cluster": 8422,
      "consumer": 8423,
      "circ": 8424,
      "Labeling": 8425,
      "Challeng": 8426,
      "frontal": 8427,
      "macher": 8428,
      "Rademacher": 8429,
      "'.": 8430,
      "31": 8431,
      "FE": 8432,
      "emoj": 8433,
      "stories": 8434,
      "chun": 8435,
      "lost": 8436,
      "unobserved": 8437,
      "unbounded": 8438,
      "distribut": 8439,
      "subproblems": 8440,
      "Proceed": 8441,
      "Neuron": 8442,
      "word2vec": 8443,
      "keyword": 8444,
      "noises": 8445,
      "Perspective": 8446,
      "malicious": 8447,
      "examines": 8448,
      "simplification": 8449,
      "simplest": 8450,
      "examining": 8451,
      "Classical": 8452,
      "deciding": 8453,
      "Typically": 8454,
      "laser": 8455,
      "movies": 8456,
      "Strategies": 8457,
      "disciplines": 8458,
      "clique": 8459,
      "Horn": 8460,
      "Stanford": 8461,
      "accommodate": 8462,
      "Surprisingly": 8463,
      "-\\": 8464,
      "DCT": 8465,
      "Hetero": 8466,
      "Java": 8467,
      "LL": 8468,
      "Ped": 8469,
      "WER": 8470,
      "hn": 8471,
      "mirror": 8472,
      "proxy": 8473,
      "wearable": 8474,
      "deline": 8475,
      "Input": 8476,
      "sounds": 8477,
      "imputation": 8478,
      "taining": 8479,
      "Construction": 8480,
      "prices": 8481,
      "deduc": 8482,
      "extrapol": 8483,
      "characterizes": 8484,
      "compositions": 8485,
      "regional": 8486,
      "pursu": 8487,
      "Sequences": 8488,
      "Synthetic": 8489,
      "musical": 8490,
      "Tasks": 8491,
      "loops": 8492,
      "fairly": 8493,
      "reflectance": 8494,
      "animal": 8495,
      "crossing": 8496,
      "Normalization": 8497,
      "distillation": 8498,
      "Electron": 8499,
      ",\"": 8500,
      "Bal": 8501,
      "Bil": 8502,
      "Cro": 8503,
      "DQN": 8504,
      "HM": 8505,
      "IA": 8506,
      "say": 8507,
      "things": 8508,
      "rex": 8509,
      "ulates": 8510,
      "confusion": 8511,
      "sport": 8512,
      "Any": 8513,
      "convergent": 8514,
      "Clin": 8515,
      "instant": 8516,
      "sorting": 8517,
      "website": 8518,
      "seeking": 8519,
      "orientations": 8520,
      "photographs": 8521,
      "Intro": 8522,
      "Traject": 8523,
      "awareness": 8524,
      "eigenvalue": 8525,
      "Distributions": 8526,
      "pedestrians": 8527,
      "yielded": 8528,
      "Science": 8529,
      "leaves": 8530,
      "regularities": 8531,
      "expressiveness": 8532,
      "Linguistic": 8533,
      "spontaneous": 8534,
      "Wolfe": 8535,
      "chapter": 8536,
      "Proceedings": 8537,
      "Early": 8538,
      "Ising": 8539,
      "Switch": 8540,
      "UCI": 8541,
      "ums": 8542,
      "attract": 8543,
      "offered": 8544,
      "aboration": 8545,
      "nodule": 8546,
      "ney": 8547,
      "Inductive": 8548,
      "cord": 8549,
      "Connec": 8550,
      "realization": 8551,
      "autoregressive": 8552,
      "Compressive": 8553,
      "targeting": 8554,
      "toolbox": 8555,
      "letters": 8556,
      "propagate": 8557,
      "assessments": 8558,
      "specifying": 8559,
      "illustrates": 8560,
      "histograms": 8561,
      "accomplished": 8562,
      "conflicting": 8563,
      "anoma": 8564,
      "www": 8565,
      "prohibitive": 8566,
      "Delta": 8567,
      "Pairwise": 8568,
      "Abstract": 8569,
      "Recursive": 8570,
      "Foc": 8571,
      "Plat": 8572,
      "Util": 8573,
      "dit": 8574,
      "lens": 8575,
      "inser": 8576,
      "erg": 8577,
      "covered": 8578,
      "imit": 8579,
      "chip": 8580,
      "izability": 8581,
      "contact": 8582,
      "internet": 8583,
      "cyber": 8584,
      "Seq": 8585,
      "itudinal": 8586,
      "flight": 8587,
      "Pooling": 8588,
      "amous": 8589,
      "SAC": 8590,
      "faults": 8591,
      "Variation": 8592,
      "symmetries": 8593,
      "topologies": 8594,
      "distorted": 8595,
      "Sensitive": 8596,
      "speedups": 8597,
      "Forecasting": 8598,
      "LASSO": 8599,
      "contrastive": 8600,
      "precedented": 8601,
      "Alternating": 8602,
      "constituent": 8603,
      "Precision": 8604,
      "utorial": 8605,
      "AO": 8606,
      "HP": 8607,
      "rit": 8608,
      "}$-": 8609,
      "adds": 8610,
      "asked": 8611,
      "Total": 8612,
      "solar": 8613,
      "markets": 8614,
      "univers": 8615,
      "Variance": 8616,
      "websites": 8617,
      "Subsequently": 8618,
      "crop": 8619,
      "sketches": 8620,
      "pathological": 8621,
      "severely": 8622,
      "retrieving": 8623,
      "circumstances": 8624,
      "IoT": 8625,
      "intrusion": 8626,
      "Frequency": 8627,
      "Symbolic": 8628,
      "pronoun": 8629,
      "73": 8630,
      "GB": 8631,
      "HC": 8632,
      "Ko": 8633,
      "Mut": 8634,
      "Rest": 8635,
      "Spl": 8636,
      "bir": 8637,
      "brow": 8638,
      "vare": 8639,
      "anisotropic": 8640,
      "astron": 8641,
      "storing": 8642,
      "stacking": 8643,
      "unprecedented": 8644,
      "abe": 8645,
      "curse": 8646,
      "living": 8647,
      "Consistency": 8648,
      "Explan": 8649,
      "marketing": 8650,
      "achievable": 8651,
      "focal": 8652,
      "regularize": 8653,
      "practices": 8654,
      "SVRC": 8655,
      "alternate": 8656,
      "insically": 8657,
      "Shan": 8658,
      "restrict": 8659,
      "Structures": 8660,
      "ACO": 8661,
      "densely": 8662,
      "Life": 8663,
      "gaps": 8664,
      "duality": 8665,
      "sections": 8666,
      "laws": 8667,
      "Dimensionality": 8668,
      "Verification": 8669,
      "memories": 8670,
      "Compositional": 8671,
      "Cir": 8672,
      "Vec": 8673,
      "bic": 8674,
      "ography": 8675,
      "ovian": 8676,
      "thinking": 8677,
      "tiveness": 8678,
      "ilst": 8679,
      "strati": 8680,
      "clause": 8681,
      "Infer": 8682,
      "Incorpor": 8683,
      "raises": 8684,
      "guess": 8685,
      "lifted": 8686,
      "minis": 8687,
      "submitted": 8688,
      "requests": 8689,
      "peer": 8690,
      "ranges": 8691,
      "benign": 8692,
      "pick": 8693,
      "axis": 8694,
      "Positive": 8695,
      "projective": 8696,
      "treatments": 8697,
      "Difference": 8698,
      "Practical": 8699,
      "metaheuristic": 8700,
      "Speed": 8701,
      "receive": 8702,
      "Geometry": 8703,
      "narrative": 8704,
      "Pyramid": 8705,
      "legal": 8706,
      "physiological": 8707,
      "ournal": 8708,
      "44": 8709,
      "Average": 8710,
      "Cover": 8711,
      "Much": 8712,
      "Rough": 8713,
      "ai": 8714,
      "brought": 8715,
      "iors": 8716,
      "tin": 8717,
      "uation": 8718,
      "entangle": 8719,
      "seq": 8720,
      "ecker": 8721,
      "trading": 8722,
      "chat": 8723,
      "ague": 8724,
      "died": 8725,
      "creative": 8726,
      "clusion": 8727,
      "Multivariate": 8728,
      "associate": 8729,
      "separability": 8730,
      "articulated": 8731,
      "Transformation": 8732,
      "extractor": 8733,
      "Logics": 8734,
      "eyes": 8735,
      "reporting": 8736,
      "tagger": 8737,
      "Relax": 8738,
      "Expon": 8739,
      "printed": 8740,
      "cutting": 8741,
      "Minimal": 8742,
      "schedule": 8743,
      "automate": 8744,
      "Hamming": 8745,
      "People": 8746,
      "compensate": 8747,
      "Spoken": 8748,
      "astronom": 8749,
      "67": 8750,
      "FF": 8751,
      "GN": 8752,
      "Lif": 8753,
      "RI": 8754,
      "SNR": 8755,
      "aign": 8756,
      "harness": 8757,
      "multinomial": 8758,
      "pit": 8759,
      "v2": 8760,
      "you": 8761,
      "inspir": 8762,
      "orting": 8763,
      "rounds": 8764,
      "toy": 8765,
      "chance": 8766,
      "unci": 8767,
      "dates": 8768,
      "learnability": 8769,
      "bodies": 8770,
      "ularly": 8771,
      "wherein": 8772,
      "Project": 8773,
      "constructions": 8774,
      "explosion": 8775,
      "Stud": 8776,
      "iber": 8777,
      "witness": 8778,
      "adopting": 8779,
      "restaur": 8780,
      "Travel": 8781,
      "Heb": 8782,
      "Treebank": 8783,
      "Works": 8784,
      "walks": 8785,
      "remarkably": 8786,
      "Qualitative": 8787,
      "Street": 8788,
      "Caltech": 8789,
      "stroke": 8790,
      "versatile": 8791,
      "decidable": 8792,
      "Music": 8793,
      "Communication": 8794,
      "shrinkage": 8795,
      "varepsilon": 8796,
      "Hol": 8797,
      "MKL": 8798,
      "Score": 8799,
      "aw": 8800,
      "fers": 8801,
      "gating": 8802,
      "hur": 8803,
      "vot": 8804,
      "retraining": 8805,
      "leak": 8806,
      "compress": 8807,
      "plate": 8808,
      "pressure": 8809,
      "impul": 8810,
      "interplay": 8811,
      "sublinear": 8812,
      "subgraphs": 8813,
      "generalisation": 8814,
      "localisation": 8815,
      "Units": 8816,
      "reasonably": 8817,
      "ranks": 8818,
      "parallelization": 8819,
      "numeric": 8820,
      "propagating": 8821,
      "lightweight": 8822,
      "Facebook": 8823,
      "pivot": 8824,
      "Manip": 8825,
      "exhibiting": 8826,
      "AND": 8827,
      "adjusted": 8828,
      "thousand": 8829,
      "ILSVRC": 8830,
      "catastro": 8831,
      "happen": 8832,
      "adjacency": 8833,
      "advertising": 8834,
      "manufacturing": 8835,
      "seamlessly": 8836,
      "shorter": 8837,
      "cubic": 8838,
      "150": 8839,
      "68": 8840,
      "Bin": 8841,
      "BDD": 8842,
      "Blind": 8843,
      "DRL": 8844,
      "ON": 8845,
      "Stein": 8846,
      "War": 8847,
      "auction": 8848,
      "mia": 8849,
      "pical": 8850,
      "reproduce": 8851,
      "attribution": 8852,
      "defici": 8853,
      "forced": 8854,
      "coh": 8855,
      "mative": 8856,
      "syll": 8857,
      "marker": 8858,
      "Compressed": 8859,
      "century": 8860,
      "advice": 8861,
      "foundations": 8862,
      "fru": 8863,
      "restrictive": 8864,
      "influential": 8865,
      "affecting": 8866,
      "wind": 8867,
      "download": 8868,
      "Collec": 8869,
      "spikes": 8870,
      "Extracting": 8871,
      "emphasize": 8872,
      "acceptance": 8873,
      "...": 8874,
      "education": 8875,
      "Magnetic": 8876,
      "Evidence": 8877,
      "resampling": 8878,
      "believed": 8879,
      "European": 8880,
      "72": 8881,
      "Base": 8882,
      "Gated": 8883,
      "Numb": 8884,
      "RNA": 8885,
      "Suc": 8886,
      "Vectors": 8887,
      "dB": 8888,
      "lers": 8889,
      "mand": 8890,
      "saddle": 8891,
      "remed": 8892,
      "workflow": 8893,
      "Weight": 8894,
      "Intr": 8895,
      "rendered": 8896,
      "contin": 8897,
      "serial": 8898,
      "requis": 8899,
      "Tomography": 8900,
      "Propos": 8901,
      "factored": 8902,
      "bration": 8903,
      "normally": 8904,
      "Loop": 8905,
      "earth": 8906,
      "grouped": 8907,
      "SVHN": 8908,
      "mechanics": 8909,
      "separating": 8910,
      "removes": 8911,
      "reviewed": 8912,
      "influenced": 8913,
      "assigns": 8914,
      "polynomials": 8915,
      "ACE": 8916,
      "Randomized": 8917,
      "prototypes": 8918,
      "Good": 8919,
      "international": 8920,
      "Filters": 8921,
      "Wiki": 8922,
      "Datasets": 8923,
      "Service": 8924,
      "justify": 8925,
      "judge": 8926,
      "Discourse": 8927,
      "nouns": 8928,
      "ascular": 8929,
      "Interpretable": 8930,
      "Behavior": 8931,
      "Revis": 8932,
      "Properties": 8933,
      "Preserving": 8934,
      "Zipf": 8935,
      "79": 8936,
      "Line": 8937,
      "LID": 8938,
      "OO": 8939,
      "Sw": 8940,
      "kle": 8941,
      "odied": 8942,
      "race": 8943,
      "smoothed": 8944,
      "}(\\": 8945,
      "rejection": 8946,
      "covariate": 8947,
      "echo": 8948,
      "genre": 8949,
      "curriculum": 8950,
      "prevents": 8951,
      "Learned": 8952,
      "ishing": 8953,
      "anytime": 8954,
      "sparsely": 8955,
      "ell_2": 8956,
      "closest": 8957,
      "Bot": 8958,
      "push": 8959,
      "reader": 8960,
      "hypergraph": 8961,
      "pathways": 8962,
      "acquiring": 8963,
      "affective": 8964,
      "droid": 8965,
      "Reduce": 8966,
      "periods": 8967,
      "Similar": 8968,
      "degraded": 8969,
      "Quantization": 8970,
      "attains": 8971,
      "Phr": 8972,
      "Enhanced": 8973,
      "anomalous": 8974,
      "grayscale": 8975,
      "comprised": 8976,
      "compilation": 8977,
      "Partially": 8978,
      "Initial": 8979,
      "binarization": 8980,
      "Valid": 8981,
      "Calculus": 8982,
      "Mutual": 8983,
      "EHR": 8984,
      "Prun": 8985,
      "Very": 8986,
      "famous": 8987,
      "ool": 8988,
      "ann": 8989,
      "arrays": 8990,
      "mographic": 8991,
      "ette": 8992,
      "exerc": 8993,
      "unch": 8994,
      "compelling": 8995,
      "visibility": 8996,
      "notes": 8997,
      "ativeness": 8998,
      "Conference": 8999,
      "underwater": 9000,
      "prise": 9001,
      "visualizing": 9002,
      "simulating": 9003,
      "pictures": 9004,
      "surgery": 9005,
      "smallest": 9006,
      "Detector": 9007,
      "hierarchically": 9008,
      "formalized": 9009,
      "Nonnegative": 9010,
      "organizations": 9011,
      "surveys": 9012,
      "Robustness": 9013,
      "mentions": 9014,
      "broadly": 9015,
      "experienced": 9016,
      "Bethe": 9017,
      "Techno": 9018,
      "branching": 9019,
      "commerce": 9020,
      "Dialog": 9021,
      "payoff": 9022,
      "footprint": 9023,
      "elicitation": 9024,
      "Starting": 9025,
      "Development": 9026,
      "Separation": 9027,
      "Coordinate": 9028,
      "immune": 9029,
      "developers": 9030,
      "))$": 9031,
      "+\\": 9032,
[...]
